#include "magic_wand_model_data.h"

// We need to keep the data array aligned on some architectures.
#ifdef __has_attribute
#define HAVE_ATTRIBUTE(x) __has_attribute(x)
#else
#define HAVE_ATTRIBUTE(x) 0
#endif
#if HAVE_ATTRIBUTE(aligned) || (defined(__GNUC__) && !defined(__clang__))
#define DATA_ALIGN_ATTRIBUTE __attribute__((aligned(4)))
#else
#define DATA_ALIGN_ATTRIBUTE
#endif

const unsigned char g_magic_wand_model_data[] DATA_ALIGN_ATTRIBUTE = {
    // Paste the data of the char array in `src/model.cc` here
    0x08, 0x00, 0x00, 0x00, 0x54, 0x46, 0x4c, 0x33, 0x62, 0xff, 0xff, 0xff,
    0x03, 0x00, 0x00, 0x00, 0x10, 0x00, 0x00, 0x00, 0x24, 0x00, 0x00, 0x00,
    0x78, 0x00, 0x00, 0x00, 0x24, 0x00, 0x00, 0x00, 0x05, 0x00, 0x00, 0x00,
    0x78, 0x05, 0x00, 0x00, 0xb0, 0x04, 0x00, 0x00, 0xe0, 0x02, 0x00, 0x00,
    0x60, 0x02, 0x00, 0x00, 0x54, 0x01, 0x00, 0x00, 0x01, 0x00, 0x00, 0x00,
    0x78, 0x00, 0x00, 0x00, 0x13, 0x00, 0x00, 0x00, 0xd4, 0x2f, 0x00, 0x00,
    0xd0, 0x2f, 0x00, 0x00, 0xdc, 0x2e, 0x00, 0x00, 0x68, 0x2e, 0x00, 0x00,
    0xfc, 0x2d, 0x00, 0x00, 0xac, 0x11, 0x00, 0x00, 0x98, 0x10, 0x00, 0x00,
    0xbc, 0x0e, 0x00, 0x00, 0x60, 0x06, 0x00, 0x00, 0xfc, 0x05, 0x00, 0x00,
    0x78, 0x05, 0x00, 0x00, 0xa8, 0x2f, 0x00, 0x00, 0xa4, 0x2f, 0x00, 0x00,
    0xa0, 0x2f, 0x00, 0x00, 0x9c, 0x2f, 0x00, 0x00, 0x98, 0x2f, 0x00, 0x00,
    0x94, 0x2f, 0x00, 0x00, 0x90, 0x2f, 0x00, 0x00, 0x8c, 0x2f, 0x00, 0x00,
    0x0f, 0x00, 0x00, 0x00, 0x4d, 0x4c, 0x49, 0x52, 0x20, 0x43, 0x6f, 0x6e,
    0x76, 0x65, 0x72, 0x74, 0x65, 0x64, 0x2e, 0x00, 0x00, 0x00, 0x0e, 0x00,
    0x18, 0x00, 0x04, 0x00, 0x08, 0x00, 0x0c, 0x00, 0x10, 0x00, 0x14, 0x00,
    0x0e, 0x00, 0x00, 0x00, 0x14, 0x00, 0x00, 0x00, 0x5c, 0x00, 0x00, 0x00,
    0x60, 0x00, 0x00, 0x00, 0x64, 0x00, 0x00, 0x00, 0x84, 0x00, 0x00, 0x00,
    0x12, 0x00, 0x00, 0x00, 0x04, 0x2f, 0x00, 0x00, 0xa0, 0x2e, 0x00, 0x00,
    0xf8, 0x2d, 0x00, 0x00, 0x98, 0x2d, 0x00, 0x00, 0x30, 0x2d, 0x00, 0x00,
    0xdc, 0x10, 0x00, 0x00, 0xc0, 0x0f, 0x00, 0x00, 0xe4, 0x0d, 0x00, 0x00,
    0xa0, 0x05, 0x00, 0x00, 0x3c, 0x05, 0x00, 0x00, 0xb0, 0x04, 0x00, 0x00,
    0xe8, 0x03, 0x00, 0x00, 0x38, 0x03, 0x00, 0x00, 0xa4, 0x02, 0x00, 0x00,
    0x10, 0x02, 0x00, 0x00, 0x90, 0x01, 0x00, 0x00, 0xfc, 0x00, 0x00, 0x00,
    0x80, 0x00, 0x00, 0x00, 0x01, 0x00, 0x00, 0x00, 0x00, 0x00, 0x00, 0x00,
    0x01, 0x00, 0x00, 0x00, 0x11, 0x00, 0x00, 0x00, 0x08, 0x00, 0x00, 0x00,
    0x1c, 0x04, 0x00, 0x00, 0x58, 0x03, 0x00, 0x00, 0xc8, 0x02, 0x00, 0x00,
    0x24, 0x02, 0x00, 0x00, 0xac, 0x01, 0x00, 0x00, 0x10, 0x01, 0x00, 0x00,
    0x94, 0x00, 0x00, 0x00, 0x10, 0x00, 0x00, 0x00, 0x04, 0x00, 0x00, 0x00,
    0x6d, 0x61, 0x69, 0x6e, 0x00, 0x00, 0x00, 0x00, 0x8e, 0xff, 0xff, 0xff,
    0x00, 0x00, 0x00, 0x09, 0x04, 0x00, 0x00, 0x00, 0x1c, 0x00, 0x00, 0x00,
    0x10, 0x00, 0x00, 0x00, 0x04, 0x00, 0x00, 0x00, 0x4e, 0xd2, 0xff, 0xff,
    0x00, 0x00, 0x80, 0x3f, 0x01, 0x00, 0x00, 0x00, 0x11, 0x00, 0x00, 0x00,
    0x01, 0x00, 0x00, 0x00, 0x10, 0x00, 0x00, 0x00, 0xf6, 0xfb, 0xff, 0xff,
    0x00, 0x00, 0x00, 0x19, 0x01, 0x00, 0x00, 0x00, 0xce, 0xd1, 0xff, 0xff,
    0x10, 0x00, 0x00, 0x00, 0x12, 0x00, 0x00, 0x00, 0x14, 0x00, 0x00, 0x00,
    0x20, 0x00, 0x00, 0x00, 0x02, 0x00, 0x00, 0x00, 0x01, 0x00, 0x00, 0x00,
    0x03, 0x00, 0x00, 0x00, 0x08, 0x00, 0x00, 0x00, 0x49, 0x64, 0x65, 0x6e,
    0x74, 0x69, 0x74, 0x79, 0x00, 0x00, 0x00, 0x00, 0x08, 0xd2, 0xff, 0xff,
    0x00, 0x00, 0x0e, 0x00, 0x18, 0x00, 0x08, 0x00, 0x0c, 0x00, 0x10, 0x00,
    0x07, 0x00, 0x14, 0x00, 0x0e, 0x00, 0x00, 0x00, 0x00, 0x00, 0x00, 0x08,
    0x03, 0x00, 0x00, 0x00, 0x18, 0x00, 0x00, 0x00, 0x0c, 0x00, 0x00, 0x00,
    0x04, 0x00, 0x00, 0x00, 0xdc, 0xd1, 0xff, 0xff, 0x01, 0x00, 0x00, 0x00,
    0x10, 0x00, 0x00, 0x00, 0x03, 0x00, 0x00, 0x00, 0x0f, 0x00, 0x00, 0x00,
    0x05, 0x00, 0x00, 0x00, 0x02, 0x00, 0x00, 0x00, 0x46, 0xd2, 0xff, 0xff,
    0x10, 0x00, 0x00, 0x00, 0x11, 0x00, 0x00, 0x00, 0x14, 0x00, 0x00, 0x00,
    0x30, 0x00, 0x00, 0x00, 0x02, 0x00, 0x00, 0x00, 0x01, 0x00, 0x00, 0x00,
    0x03, 0x00, 0x00, 0x00, 0x1a, 0x00, 0x00, 0x00, 0x73, 0x65, 0x71, 0x75,
    0x65, 0x6e, 0x74, 0x69, 0x61, 0x6c, 0x2f, 0x64, 0x65, 0x6e, 0x73, 0x65,
    0x5f, 0x31, 0x2f, 0x42, 0x69, 0x61, 0x73, 0x41, 0x64, 0x64, 0x00, 0x00,
    0x38, 0xd2, 0xff, 0xff, 0xd6, 0xfd, 0xff, 0xff, 0x00, 0x00, 0x00, 0x08,
    0x03, 0x00, 0x00, 0x00, 0x24, 0x00, 0x00, 0x00, 0x18, 0x00, 0x00, 0x00,
    0x0c, 0x00, 0x00, 0x00, 0x00, 0x00, 0x06, 0x00, 0x08, 0x00, 0x07, 0x00,
    0x06, 0x00, 0x00, 0x00, 0x00, 0x00, 0x00, 0x01, 0x01, 0x00, 0x00, 0x00,
    0x0f, 0x00, 0x00, 0x00, 0x03, 0x00, 0x00, 0x00, 0x0e, 0x00, 0x00, 0x00,
    0x04, 0x00, 0x00, 0x00, 0x01, 0x00, 0x00, 0x00, 0xfe, 0xfc, 0xff, 0xff,
    0x00, 0x00, 0x00, 0x09, 0x01, 0x00, 0x00, 0x00, 0xd6, 0xd2, 0xff, 0xff,
    0x10, 0x00, 0x00, 0x00, 0x10, 0x00, 0x00, 0x00, 0x14, 0x00, 0x00, 0x00,
    0x2c, 0x00, 0x00, 0x00, 0x02, 0x00, 0x00, 0x00, 0x01, 0x00, 0x00, 0x00,
    0x10, 0x00, 0x00, 0x00, 0x15, 0x00, 0x00, 0x00, 0x73, 0x65, 0x71, 0x75,
    0x65, 0x6e, 0x74, 0x69, 0x61, 0x6c, 0x2f, 0x64, 0x65, 0x6e, 0x73, 0x65,
    0x2f, 0x52, 0x65, 0x6c, 0x75, 0x00, 0x00, 0x00, 0x1c, 0xd3, 0xff, 0xff,
    0x00, 0x00, 0x0a, 0x00, 0x10, 0x00, 0x04, 0x00, 0x08, 0x00, 0x0c, 0x00,
    0x0a, 0x00, 0x00, 0x00, 0x02, 0x00, 0x00, 0x00, 0x10, 0x00, 0x00, 0x00,
    0x04, 0x00, 0x00, 0x00, 0x01, 0x00, 0x00, 0x00, 0x0e, 0x00, 0x00, 0x00,
    0x02, 0x00, 0x00, 0x00, 0x0d, 0x00, 0x00, 0x00, 0x03, 0x00, 0x00, 0x00,
    0x7a, 0xfd, 0xff, 0xff, 0x00, 0x00, 0x00, 0x16, 0x01, 0x00, 0x00, 0x00,
    0x52, 0xd3, 0xff, 0xff, 0x10, 0x00, 0x00, 0x00, 0x0f, 0x00, 0x00, 0x00,
    0x14, 0x00, 0x00, 0x00, 0x30, 0x00, 0x00, 0x00, 0x02, 0x00, 0x00, 0x00,
    0x01, 0x00, 0x00, 0x00, 0x70, 0x00, 0x00, 0x00, 0x1a, 0x00, 0x00, 0x00,
    0x73, 0x65, 0x71, 0x75, 0x65, 0x6e, 0x74, 0x69, 0x61, 0x6c, 0x2f, 0x66,
    0x6c, 0x61, 0x74, 0x74, 0x65, 0x6e, 0x2f, 0x52, 0x65, 0x73, 0x68, 0x61,
    0x70, 0x65, 0x00, 0x00, 0x44, 0xd3, 0xff, 0xff, 0xe2, 0xfe, 0xff, 0xff,
    0x00, 0x00, 0x00, 0x05, 0x01, 0x00, 0x00, 0x00, 0x38, 0x00, 0x00, 0x00,
    0x2c, 0x00, 0x00, 0x00, 0x14, 0x00, 0x00, 0x00, 0x00, 0x00, 0x0e, 0x00,
    0x14, 0x00, 0x00, 0x00, 0x10, 0x00, 0x0c, 0x00, 0x08, 0x00, 0x04, 0x00,
    0x0e, 0x00, 0x00, 0x00, 0x03, 0x00, 0x00, 0x00, 0x01, 0x00, 0x00, 0x00,
    0x03, 0x00, 0x00, 0x00, 0x01, 0x00, 0x00, 0x00, 0x01, 0x00, 0x00, 0x00,
    0x0d, 0x00, 0x00, 0x00, 0x01, 0x00, 0x00, 0x00, 0x0c, 0x00, 0x00, 0x00,
    0xe2, 0xd3, 0xff, 0xff, 0x10, 0x00, 0x00, 0x00, 0x0e, 0x00, 0x00, 0x00,
    0x1c, 0x00, 0x00, 0x00, 0x40, 0x00, 0x00, 0x00, 0x04, 0x00, 0x00, 0x00,
    0x01, 0x00, 0x00, 0x00, 0x07, 0x00, 0x00, 0x00, 0x01, 0x00, 0x00, 0x00,
    0x10, 0x00, 0x00, 0x00, 0x22, 0x00, 0x00, 0x00, 0x73, 0x65, 0x71, 0x75,
    0x65, 0x6e, 0x74, 0x69, 0x61, 0x6c, 0x2f, 0x6d, 0x61, 0x78, 0x5f, 0x70,
    0x6f, 0x6f, 0x6c, 0x69, 0x6e, 0x67, 0x32, 0x64, 0x5f, 0x31, 0x2f, 0x4d,
    0x61, 0x78, 0x50, 0x6f, 0x6f, 0x6c, 0x00, 0x00, 0xe4, 0xd3, 0xff, 0xff,
    0xc2, 0xfe, 0xff, 0xff, 0x00, 0x00, 0x00, 0x01, 0x24, 0x00, 0x00, 0x00,
    0x18, 0x00, 0x00, 0x00, 0x04, 0x00, 0x00, 0x00, 0xb4, 0xfe, 0xff, 0xff,
    0x01, 0x00, 0x00, 0x00, 0x01, 0x00, 0x00, 0x00, 0x00, 0x00, 0x00, 0x01,
    0x01, 0x00, 0x00, 0x00, 0x0c, 0x00, 0x00, 0x00, 0x03, 0x00, 0x00, 0x00,
    0x0b, 0x00, 0x00, 0x00, 0x07, 0x00, 0x00, 0x00, 0x09, 0x00, 0x00, 0x00,
    0x72, 0xd4, 0xff, 0xff, 0x10, 0x00, 0x00, 0x00, 0x0d, 0x00, 0x00, 0x00,
    0x1c, 0x00, 0x00, 0x00, 0x2c, 0x00, 0x00, 0x00, 0x04, 0x00, 0x00, 0x00,
    0x01, 0x00, 0x00, 0x00, 0x15, 0x00, 0x00, 0x00, 0x01, 0x00, 0x00, 0x00,
    0x10, 0x00, 0x00, 0x00, 0x0c, 0x00, 0x00, 0x00, 0x74, 0x66, 0x6c, 0x2e,
    0x63, 0x6f, 0x6e, 0x76, 0x5f, 0x32, 0x64, 0x31, 0x00, 0x00, 0x00, 0x00,
    0xb8, 0xd4, 0xff, 0xff, 0x00, 0x00, 0x0e, 0x00, 0x1a, 0x00, 0x08, 0x00,
    0x0c, 0x00, 0x10, 0x00, 0x07, 0x00, 0x14, 0x00, 0x0e, 0x00, 0x00, 0x00,
    0x00, 0x00, 0x00, 0x05, 0x01, 0x00, 0x00, 0x00, 0x3c, 0x00, 0x00, 0x00,
    0x30, 0x00, 0x00, 0x00, 0x14, 0x00, 0x00, 0x00, 0x00, 0x00, 0x0e, 0x00,
    0x18, 0x00, 0x17, 0x00, 0x10, 0x00, 0x0c, 0x00, 0x08, 0x00, 0x04, 0x00,
    0x0e, 0x00, 0x00, 0x00, 0x03, 0x00, 0x00, 0x00, 0x03, 0x00, 0x00, 0x00,
    0x03, 0x00, 0x00, 0x00, 0x03, 0x00, 0x00, 0x00, 0x00, 0x00, 0x00, 0x01,
    0x01, 0x00, 0x00, 0x00, 0x0b, 0x00, 0x00, 0x00, 0x01, 0x00, 0x00, 0x00,
    0x0a, 0x00, 0x00, 0x00, 0x46, 0xff, 0xff, 0xff, 0x00, 0x00, 0x00, 0x11,
    0x01, 0x00, 0x00, 0x00, 0x1e, 0xd5, 0xff, 0xff, 0x10, 0x00, 0x00, 0x00,
    0x0c, 0x00, 0x00, 0x00, 0x1c, 0x00, 0x00, 0x00, 0x40, 0x00, 0x00, 0x00,
    0x04, 0x00, 0x00, 0x00, 0x01, 0x00, 0x00, 0x00, 0x15, 0x00, 0x00, 0x00,
    0x01, 0x00, 0x00, 0x00, 0x08, 0x00, 0x00, 0x00, 0x20, 0x00, 0x00, 0x00,
    0x73, 0x65, 0x71, 0x75, 0x65, 0x6e, 0x74, 0x69, 0x61, 0x6c, 0x2f, 0x6d,
    0x61, 0x78, 0x5f, 0x70, 0x6f, 0x6f, 0x6c, 0x69, 0x6e, 0x67, 0x32, 0x64,
    0x2f, 0x4d, 0x61, 0x78, 0x50, 0x6f, 0x6f, 0x6c, 0x00, 0x00, 0x00, 0x00,
    0x78, 0xd5, 0xff, 0xff, 0x00, 0x00, 0x0e, 0x00, 0x14, 0x00, 0x00, 0x00,
    0x08, 0x00, 0x0c, 0x00, 0x07, 0x00, 0x10, 0x00, 0x0e, 0x00, 0x00, 0x00,
    0x00, 0x00, 0x00, 0x01, 0x30, 0x00, 0x00, 0x00, 0x24, 0x00, 0x00, 0x00,
    0x10, 0x00, 0x00, 0x00, 0x0c, 0x00, 0x10, 0x00, 0x00, 0x00, 0x04, 0x00,
    0x08, 0x00, 0x0f, 0x00, 0x0c, 0x00, 0x00, 0x00, 0x01, 0x00, 0x00, 0x00,
    0x01, 0x00, 0x00, 0x00, 0x00, 0x00, 0x00, 0x01, 0x01, 0x00, 0x00, 0x00,
    0x0a, 0x00, 0x00, 0x00, 0x03, 0x00, 0x00, 0x00, 0x00, 0x00, 0x00, 0x00,
    0x06, 0x00, 0x00, 0x00, 0x08, 0x00, 0x00, 0x00, 0x00, 0x00, 0x0a, 0x00,
    0x0c, 0x00, 0x07, 0x00, 0x00, 0x00, 0x08, 0x00, 0x0a, 0x00, 0x00, 0x00,
    0x00, 0x00, 0x00, 0x03, 0x01, 0x00, 0x00, 0x00, 0xe2, 0xd5, 0xff, 0xff,
    0x10, 0x00, 0x00, 0x00, 0x0b, 0x00, 0x00, 0x00, 0x1c, 0x00, 0x00, 0x00,
    0x28, 0x00, 0x00, 0x00, 0x04, 0x00, 0x00, 0x00, 0x01, 0x00, 0x00, 0x00,
    0x40, 0x00, 0x00, 0x00, 0x03, 0x00, 0x00, 0x00, 0x08, 0x00, 0x00, 0x00,
    0x0b, 0x00, 0x00, 0x00, 0x74, 0x66, 0x6c, 0x2e, 0x63, 0x6f, 0x6e, 0x76,
    0x5f, 0x32, 0x64, 0x00, 0xcc, 0xd5, 0xff, 0xff, 0xc2, 0xd6, 0xff, 0xff,
    0x04, 0x00, 0x00, 0x00, 0x40, 0x00, 0x00, 0x00, 0x0c, 0x41, 0x40, 0xc0,
    0x6c, 0x0f, 0x9c, 0x3f, 0x9f, 0x5f, 0x44, 0xbf, 0x6f, 0xc2, 0xae, 0xbf,
    0xff, 0x43, 0xd6, 0xbe, 0xfb, 0x8c, 0x5d, 0xbf, 0x64, 0x8e, 0xa1, 0x3f,
    0x8c, 0x9f, 0xb3, 0x3f, 0xa7, 0x07, 0xfa, 0xbf, 0xf2, 0x7a, 0x42, 0x40,
    0x87, 0x4c, 0xad, 0xbf, 0x7c, 0xfd, 0xe8, 0x3f, 0x9f, 0x96, 0x6e, 0xbe,
    0x86, 0x3f, 0xec, 0xbf, 0xa1, 0x90, 0xae, 0xbe, 0x75, 0xbc, 0x15, 0x3e,
    0x6a, 0xd6, 0xff, 0xff, 0x10, 0x00, 0x00, 0x00, 0x0a, 0x00, 0x00, 0x00,
    0x10, 0x00, 0x00, 0x00, 0x20, 0x00, 0x00, 0x00, 0x01, 0x00, 0x00, 0x00,
    0x10, 0x00, 0x00, 0x00, 0x0d, 0x00, 0x00, 0x00, 0x73, 0x74, 0x64, 0x2e,
    0x63, 0x6f, 0x6e, 0x73, 0x74, 0x61, 0x6e, 0x74, 0x31, 0x00, 0x00, 0x00,
    0x4c, 0xd6, 0xff, 0xff, 0x42, 0xd7, 0xff, 0xff, 0x04, 0x00, 0x00, 0x00,
    0x20, 0x00, 0x00, 0x00, 0x9f, 0x64, 0x03, 0xbf, 0xb7, 0x3f, 0x75, 0x3d,
    0xe3, 0xe6, 0xa2, 0xbe, 0xbd, 0xb4, 0xb8, 0xbb, 0xa7, 0x0b, 0x15, 0xc0,
    0x76, 0x26, 0xcf, 0xbf, 0xbb, 0xab, 0xd8, 0xbe, 0x6b, 0x47, 0x45, 0xc0,
    0xca, 0xd6, 0xff, 0xff, 0x10, 0x00, 0x00, 0x00, 0x09, 0x00, 0x00, 0x00,
    0x10, 0x00, 0x00, 0x00, 0x20, 0x00, 0x00, 0x00, 0x01, 0x00, 0x00, 0x00,
    0x08, 0x00, 0x00, 0x00, 0x0c, 0x00, 0x00, 0x00, 0x73, 0x74, 0x64, 0x2e,
    0x63, 0x6f, 0x6e, 0x73, 0x74, 0x61, 0x6e, 0x74, 0x00, 0x00, 0x00, 0x00,
    0xac, 0xd6, 0xff, 0xff, 0xa2, 0xd7, 0xff, 0xff, 0x04, 0x00, 0x00, 0x00,
    0x00, 0x08, 0x00, 0x00, 0xd9, 0xae, 0x0e, 0xbc, 0x4f, 0x20, 0xdc, 0x3e,
    0x1e, 0x1f, 0xb6, 0x3b, 0x40, 0x16, 0xe1, 0x3c, 0xd2, 0x26, 0x15, 0x3f,
    0x72, 0xc5, 0x4b, 0x3d, 0x2f, 0x71, 0x05, 0xbf, 0x74, 0x59, 0xf9, 0xbb,
    0x19, 0x36, 0x11, 0x3e, 0x03, 0xdc, 0xfc, 0xbb, 0x8a, 0xf5, 0xeb, 0xbc,
    0x70, 0x63, 0xc0, 0xbd, 0x13, 0xdc, 0x83, 0x3d, 0xc7, 0x35, 0x1f, 0xbb,
    0x7c, 0xa1, 0xe6, 0xbe, 0x9f, 0x9e, 0x00, 0x3e, 0xd7, 0xd0, 0x65, 0x3c,
    0x09, 0xc2, 0xb8, 0xbe, 0x46, 0x8a, 0x03, 0xbd, 0xe0, 0xe1, 0x01, 0xbe,
    0x7d, 0xea, 0x86, 0xbe, 0x34, 0xb1, 0x6e, 0x3b, 0x93, 0x77, 0xbf, 0xbb,
    0x15, 0x06, 0x17, 0x3d, 0x1e, 0x4c, 0x55, 0xbd, 0xac, 0xd5, 0xaa, 0xbe,
    0x43, 0x7d, 0x90, 0xbd, 0x68, 0xce, 0xc6, 0xbd, 0x2b, 0x2e, 0xa9, 0xbe,
    0x6b, 0xf1, 0x0a, 0x3e, 0x20, 0xf7, 0x6d, 0x3d, 0x6e, 0x3d, 0x01, 0xbf,
    0x0d, 0xb8, 0x09, 0xbe, 0xe5, 0x1b, 0x95, 0xbe, 0x77, 0x8c, 0xf4, 0xbc,
    0x46, 0xfd, 0xbc, 0xbd, 0x87, 0x27, 0xb7, 0xbe, 0xd3, 0xd9, 0x1d, 0xbe,
    0x56, 0xee, 0xe8, 0xbe, 0xce, 0xfe, 0xd9, 0x3b, 0x4a, 0x0a, 0xd2, 0x3c,
    0x95, 0x61, 0x2a, 0xbd, 0x6f, 0x55, 0x4a, 0x3c, 0x72, 0x49, 0x6f, 0x3e,
    0xd5, 0xde, 0x36, 0xbe, 0xad, 0xac, 0x88, 0x3e, 0x4d, 0xd2, 0xf8, 0xbd,
    0xc0, 0xdc, 0xcc, 0xbd, 0x31, 0xaa, 0x3f, 0xbe, 0x83, 0x1a, 0x8a, 0xbc,
    0xc6, 0xb0, 0x8e, 0xbe, 0xc4, 0x8c, 0x59, 0x3d, 0xd0, 0xe1, 0x18, 0xbe,
    0xdb, 0x8f, 0x95, 0xbe, 0xe2, 0x66, 0xca, 0x3c, 0x49, 0x58, 0x47, 0xbe,
    0x4d, 0x2a, 0xb6, 0xbe, 0x9a, 0x3e, 0xa9, 0x3d, 0xcd, 0x4b, 0x00, 0x3d,
    0xf8, 0xa9, 0xe2, 0x3d, 0xb3, 0x4e, 0xb0, 0xbd, 0xa9, 0x6c, 0xbb, 0xbd,
    0xba, 0xd1, 0x24, 0x3e, 0xa8, 0x04, 0xc4, 0x3c, 0xfd, 0x7d, 0x3f, 0x3e,
    0xb3, 0xf8, 0xf3, 0xbe, 0x3d, 0x57, 0x11, 0xbc, 0x49, 0x03, 0xee, 0xbd,
    0x14, 0x45, 0xbf, 0xbe, 0xe9, 0x19, 0x1c, 0x3f, 0xf4, 0xc5, 0x8b, 0xbd,
    0x29, 0x83, 0xf6, 0x3c, 0x38, 0x85, 0xa2, 0xbd, 0x81, 0x7e, 0x9f, 0xbe,
    0x58, 0x27, 0x8d, 0xbe, 0xa4, 0x29, 0x05, 0xbe, 0x1c, 0xf7, 0xb8, 0xbe,
    0x18, 0x36, 0x32, 0x3e, 0x82, 0x48, 0xbf, 0xbd, 0x3c, 0x19, 0x74, 0xbe,
    0x0f, 0xaa, 0x1f, 0xbe, 0xa7, 0x2c, 0xbf, 0xbd, 0x2b, 0xf8, 0x32, 0xbe,
    0x15, 0xc7, 0x29, 0x3c, 0x88, 0x11, 0x52, 0xbe, 0xd3, 0xed, 0x3f, 0x3e,
    0xed, 0x52, 0xb1, 0xbd, 0x91, 0x0e, 0x6b, 0xbd, 0x85, 0xd0, 0x34, 0xbe,
    0x39, 0x75, 0x71, 0x3d, 0x21, 0xea, 0xfd, 0xbd, 0x25, 0x98, 0xa8, 0x3e,
    0x71, 0x6b, 0xf0, 0x3b, 0x4c, 0x4e, 0x01, 0x3e, 0x23, 0x7c, 0xfa, 0xbc,
    0x33, 0x95, 0x96, 0xbc, 0x13, 0x70, 0x13, 0x3f, 0x77, 0x08, 0xd2, 0xbd,
    0xbf, 0x66, 0x83, 0xbd, 0x84, 0x1c, 0xc2, 0xbc, 0x34, 0x66, 0xe2, 0x3d,
    0x69, 0x8b, 0x6a, 0x3e, 0x90, 0xc9, 0x57, 0xbe, 0x24, 0x28, 0x92, 0xbc,
    0xde, 0x2d, 0xcf, 0xbd, 0xda, 0x28, 0xa0, 0xbe, 0x79, 0x17, 0x53, 0xbd,
    0x3f, 0x12, 0x1b, 0xbe, 0xf8, 0x7e, 0x17, 0xbe, 0xf9, 0x60, 0x17, 0x3d,
    0x77, 0x23, 0x88, 0xbe, 0x67, 0x65, 0x14, 0x3e, 0xd8, 0x04, 0xbd, 0xbd,
    0xf8, 0xa9, 0xc4, 0xbd, 0x4a, 0x34, 0x2b, 0xbd, 0x10, 0x4b, 0x11, 0xbe,
    0xe9, 0x88, 0x85, 0xbe, 0xe1, 0x09, 0xa4, 0x3d, 0x70, 0x01, 0xca, 0xbd,
    0xb8, 0xe1, 0x9a, 0xbc, 0x8f, 0x89, 0x0e, 0xbe, 0x52, 0xdf, 0x33, 0x3e,
    0x81, 0x61, 0xb0, 0xbd, 0x60, 0x8d, 0x2b, 0xbe, 0xe1, 0x01, 0xa0, 0xbe,
    0x36, 0x00, 0xb0, 0x3d, 0x82, 0xbb, 0xc7, 0xbd, 0xf6, 0x21, 0xd3, 0x39,
    0x02, 0x9d, 0x25, 0xbe, 0xbf, 0xee, 0x28, 0xbe, 0x83, 0xee, 0x5e, 0xbe,
    0x81, 0x7a, 0x5f, 0x3d, 0x01, 0x44, 0xa8, 0xbd, 0xd2, 0x3d, 0xab, 0xbe,
    0xe8, 0xbf, 0x08, 0xbe, 0x1e, 0xfd, 0x78, 0xbe, 0x59, 0x1d, 0x85, 0xbe,
    0xde, 0xd7, 0x26, 0xbe, 0xe2, 0xec, 0x46, 0xbe, 0xe4, 0xbe, 0x29, 0x3b,
    0xe4, 0xa6, 0x34, 0xbe, 0x13, 0x02, 0x8b, 0xbe, 0x95, 0x70, 0x13, 0xbe,
    0x7a, 0x16, 0x2a, 0xbe, 0x6d, 0xcc, 0xc6, 0xbd, 0x8b, 0x5d, 0x47, 0xbe,
    0xfc, 0x3e, 0xe5, 0xbd, 0x45, 0xcf, 0xb7, 0x3c, 0x8c, 0x28, 0x86, 0xbe,
    0x46, 0x63, 0x88, 0x3d, 0x8d, 0x8d, 0x16, 0x3d, 0xee, 0xfd, 0xed, 0xbd,
    0x77, 0x24, 0x42, 0xbd, 0x23, 0x21, 0x1a, 0xbe, 0x1d, 0x86, 0x91, 0xbe,
    0xc0, 0xd8, 0x0c, 0xbd, 0xe1, 0x68, 0xee, 0x3d, 0x6e, 0x0c, 0x13, 0x3f,
    0x5c, 0xe4, 0x8b, 0x3e, 0xf5, 0xbf, 0xc6, 0xbe, 0x09, 0x72, 0x4c, 0xbe,
    0xbb, 0x67, 0x17, 0x3c, 0x33, 0x9b, 0x98, 0xbe, 0xa0, 0xb0, 0x95, 0xbe,
    0xfa, 0x63, 0x8e, 0xbd, 0x15, 0xef, 0x95, 0xbd, 0x43, 0xd8, 0x1d, 0x3e,
    0xb0, 0xd2, 0x85, 0x3e, 0x70, 0xe0, 0x7f, 0xbe, 0x17, 0x97, 0x76, 0x3e,
    0xf9, 0x89, 0xd4, 0xbe, 0xee, 0xcc, 0x1c, 0xbf, 0xca, 0xa7, 0x31, 0x3e,
    0x4d, 0x2c, 0xc3, 0x3e, 0x52, 0x1d, 0x27, 0x3e, 0xbb, 0xdd, 0x2f, 0x3d,
    0x6f, 0x47, 0x9b, 0xbd, 0x96, 0x49, 0xdb, 0x3d, 0xfb, 0xb1, 0x9c, 0x3e,
    0x5a, 0x39, 0xe9, 0xbe, 0xc0, 0x7f, 0xaa, 0x3d, 0x5d, 0x94, 0x9b, 0xbd,
    0x64, 0x48, 0xd8, 0xbb, 0x98, 0xbf, 0xab, 0x3d, 0xbe, 0xba, 0xa2, 0xbd,
    0xd2, 0x6c, 0x84, 0x3e, 0x4d, 0x86, 0x96, 0x3c, 0xe4, 0xe9, 0x8b, 0xbe,
    0x15, 0x81, 0xa8, 0x3d, 0xb1, 0x81, 0xfd, 0x3b, 0xed, 0x19, 0x1a, 0xbe,
    0x6a, 0xa3, 0x7b, 0x3e, 0xee, 0xb0, 0xff, 0x3d, 0xee, 0x87, 0xb6, 0xbd,
    0x20, 0xa1, 0x10, 0x3e, 0x04, 0xe5, 0x36, 0xbd, 0x5d, 0xae, 0x20, 0xbe,
    0xed, 0x97, 0x90, 0x3d, 0xec, 0x09, 0x26, 0x3d, 0x88, 0xa1, 0xe9, 0x3d,
    0x81, 0xbb, 0x46, 0x3e, 0x47, 0xf5, 0xba, 0x3d, 0x63, 0x5b, 0x04, 0xbd,
    0xcf, 0x75, 0x90, 0x3d, 0x2d, 0xa9, 0x19, 0xbc, 0x12, 0x89, 0x81, 0x3c,
    0x43, 0xe9, 0x0c, 0xbd, 0x03, 0xbc, 0xd4, 0x3d, 0xab, 0x5e, 0x1d, 0xbe,
    0xf2, 0x7e, 0xb8, 0xbc, 0x37, 0x4d, 0x83, 0x3d, 0x0c, 0x13, 0x84, 0xbc,
    0x03, 0x6b, 0x4f, 0x39, 0x6f, 0x40, 0x06, 0x3e, 0x43, 0xf2, 0x7d, 0x3e,
    0x0f, 0x96, 0x62, 0x3e, 0x00, 0x7e, 0x98, 0xba, 0x14, 0x17, 0x3b, 0x3d,
    0x5b, 0xf8, 0xde, 0xbc, 0xd1, 0xa2, 0x39, 0x3c, 0x60, 0xc8, 0x10, 0x3e,
    0x96, 0x9d, 0x5d, 0x3d, 0x62, 0x94, 0x04, 0x3e, 0xa2, 0x1f, 0xcb, 0xbc,
    0xea, 0x2a, 0x28, 0x3e, 0xb7, 0x02, 0x0e, 0xbe, 0xb2, 0xa3, 0xba, 0x3d,
    0x74, 0x88, 0x65, 0xbc, 0x1a, 0x8d, 0x93, 0xbd, 0x17, 0xe5, 0xcd, 0xbe,
    0xc8, 0x1b, 0xbf, 0x3c, 0x5d, 0x1c, 0xc5, 0xbe, 0x62, 0xd6, 0x57, 0x3e,
    0x25, 0x4d, 0x96, 0xbc, 0xfe, 0x3e, 0x61, 0x3d, 0xbb, 0xe5, 0xaa, 0x3a,
    0xa8, 0x48, 0x01, 0xbd, 0x25, 0x12, 0x18, 0xbe, 0x98, 0x4c, 0x75, 0x3d,
    0xe0, 0x62, 0x64, 0xbe, 0x56, 0x21, 0xaf, 0x3d, 0x34, 0x83, 0xac, 0x3a,
    0x28, 0xc4, 0x89, 0xbb, 0x3e, 0x3d, 0x0d, 0x3e, 0x7a, 0x29, 0xd9, 0xbd,
    0x38, 0x0a, 0x4f, 0xbe, 0xa9, 0x91, 0x84, 0xbc, 0xd7, 0xca, 0xaa, 0xbd,
    0x58, 0xf7, 0x16, 0x3d, 0x77, 0xac, 0x0e, 0x3e, 0x72, 0xf6, 0xa7, 0xbc,
    0x10, 0x84, 0xc6, 0x3c, 0x5b, 0xfa, 0xa4, 0xba, 0x67, 0xfb, 0x49, 0xbd,
    0x3e, 0xa7, 0x26, 0x3d, 0x19, 0x23, 0x9d, 0xbc, 0x1e, 0x9c, 0x00, 0xbe,
    0x12, 0x77, 0x11, 0xbf, 0x09, 0x72, 0x18, 0xbf, 0x54, 0x77, 0x8c, 0xbd,
    0x8a, 0x1e, 0xa9, 0xbe, 0x4e, 0x3a, 0xef, 0xbd, 0x6f, 0xee, 0x08, 0x3f,
    0x18, 0x1e, 0x23, 0xbf, 0xaf, 0xd8, 0xe4, 0xbd, 0x78, 0x42, 0xbb, 0x3d,
    0x5f, 0x0f, 0x05, 0xbe, 0x49, 0x9a, 0x33, 0xbe, 0x2b, 0xac, 0x14, 0x3e,
    0x1f, 0x08, 0xed, 0x3e, 0xcf, 0x48, 0x80, 0xbc, 0x6e, 0x84, 0x75, 0xb9,
    0x9a, 0x5e, 0x5e, 0xbd, 0x1d, 0x2c, 0x81, 0x3d, 0xf4, 0x4f, 0x9a, 0x3d,
    0x02, 0xa4, 0x24, 0xbe, 0x17, 0x34, 0x19, 0x3e, 0x77, 0x5c, 0x0f, 0xbf,
    0x72, 0x83, 0xf0, 0xbd, 0x87, 0xd4, 0x61, 0x3e, 0x27, 0x87, 0x68, 0x39,
    0x2b, 0x41, 0x4e, 0xbe, 0xed, 0x81, 0x43, 0x3e, 0x4d, 0xc4, 0x13, 0xbd,
    0xaa, 0x66, 0x5e, 0xbe, 0xac, 0xe2, 0x1d, 0xbe, 0x69, 0x1e, 0xf7, 0xbd,
    0xb8, 0x01, 0xee, 0xbd, 0x48, 0xef, 0x0c, 0x3f, 0xf3, 0x0a, 0x8b, 0xbc,
    0x73, 0x2e, 0x98, 0xbc, 0x63, 0x07, 0x5f, 0x3c, 0xb3, 0x0c, 0x6a, 0x3d,
    0xef, 0x8e, 0xe3, 0x3c, 0x3e, 0x71, 0xce, 0xbd, 0x3b, 0x02, 0x57, 0x3c,
    0x34, 0x48, 0x13, 0xbe, 0x5e, 0xf7, 0x90, 0xbe, 0x0a, 0x4a, 0x21, 0xbe,
    0xbc, 0xab, 0x85, 0xbe, 0x57, 0xdd, 0xd6, 0xbd, 0x83, 0x2e, 0xa4, 0xbc,
    0x20, 0xff, 0xdd, 0xbd, 0x1e, 0xff, 0xf9, 0x3d, 0x90, 0xde, 0xfd, 0xbd,
    0xfc, 0xf5, 0x95, 0x3c, 0x74, 0xa9, 0xaa, 0xbe, 0xb6, 0x93, 0x5a, 0xbe,
    0x04, 0xc9, 0x77, 0xbe, 0x01, 0x2f, 0x53, 0x3e, 0xe4, 0x65, 0xd5, 0xbd,
    0xbb, 0xa2, 0x8f, 0x3d, 0x01, 0x5f, 0x21, 0xbe, 0xad, 0xcb, 0x94, 0x3c,
    0xe0, 0x0a, 0xae, 0xbe, 0x42, 0x9f, 0x1a, 0xbe, 0x2e, 0xd9, 0xb1, 0xbe,
    0x82, 0x66, 0x8b, 0x3e, 0xa7, 0x61, 0xa7, 0xbd, 0xb4, 0x52, 0x4f, 0x3e,
    0x8d, 0x8e, 0xe3, 0xbd, 0xe1, 0xf7, 0x80, 0xbd, 0x32, 0xe2, 0xb1, 0xbd,
    0xf1, 0x34, 0xd0, 0xbd, 0x90, 0x88, 0x1b, 0xbe, 0x73, 0xda, 0x9e, 0x3e,
    0xd6, 0x5e, 0x89, 0xbe, 0x47, 0xe7, 0xdc, 0x3d, 0x5a, 0xb4, 0xb4, 0xbd,
    0xb3, 0x32, 0x9e, 0xbb, 0xa4, 0xc2, 0xc6, 0xbd, 0xd1, 0xc8, 0xb2, 0xbd,
    0x03, 0xe3, 0xf8, 0xbd, 0xc9, 0x78, 0x77, 0x3c, 0xda, 0x5b, 0x39, 0x3f,
    0x9f, 0xb4, 0x88, 0x3d, 0xb8, 0xd6, 0x9e, 0xbd, 0x5c, 0x83, 0xc2, 0xbd,
    0x63, 0x52, 0x72, 0x3c, 0xbf, 0xe7, 0x5a, 0xbe, 0xe7, 0xb8, 0xec, 0xbd,
    0xac, 0x9e, 0x57, 0x3e, 0xec, 0xce, 0x80, 0xbe, 0xe8, 0xcc, 0x8f, 0x3e,
    0x0c, 0x3e, 0xc8, 0xbd, 0x35, 0x69, 0x0e, 0xbd, 0x4e, 0xef, 0xdf, 0x3d,
    0x13, 0xf9, 0xd3, 0xbd, 0x84, 0xb2, 0x2d, 0xbe, 0xca, 0x9a, 0x6d, 0x3e,
    0x6d, 0xf0, 0x32, 0xbe, 0x8c, 0x92, 0x85, 0x3d, 0x54, 0x14, 0x8d, 0xbd,
    0x34, 0x0a, 0x5a, 0xbe, 0xf4, 0xef, 0xa1, 0xbd, 0xb8, 0x75, 0x37, 0xbd,
    0x95, 0xc5, 0x37, 0xbe, 0xf1, 0x5e, 0xdf, 0x3c, 0xb5, 0x98, 0x5c, 0xbe,
    0xaa, 0xfc, 0x03, 0xbf, 0xa8, 0xee, 0xb0, 0xbd, 0x1e, 0xfa, 0x19, 0x3e,
    0x3f, 0xa2, 0xc5, 0xbd, 0xb3, 0x83, 0x1c, 0xbd, 0x31, 0x3a, 0x4c, 0xbd,
    0x4e, 0x6f, 0x84, 0xbc, 0x48, 0xac, 0xa7, 0xbd, 0xfc, 0x1a, 0x48, 0xbe,
    0xe6, 0x93, 0x64, 0xbc, 0x7d, 0x4b, 0xa0, 0x3d, 0x8c, 0x27, 0x68, 0xbd,
    0x0f, 0x02, 0xd7, 0xbc, 0xeb, 0x95, 0x0e, 0x3e, 0x36, 0x74, 0x9e, 0xbe,
    0xd0, 0xf7, 0x1c, 0xbe, 0xf1, 0x21, 0x50, 0x3e, 0xcc, 0x46, 0x10, 0x3e,
    0x3f, 0x3e, 0xc2, 0x3c, 0xcd, 0x66, 0x3c, 0x3e, 0x2e, 0x59, 0x7c, 0x3c,
    0x07, 0xcd, 0x1b, 0x3e, 0xf5, 0xf0, 0x6f, 0x3d, 0xa9, 0xb4, 0x45, 0x3d,
    0xc5, 0x75, 0x02, 0x3f, 0x83, 0xcf, 0xea, 0xbd, 0x45, 0xd9, 0x6e, 0xbe,
    0x7e, 0x9a, 0x9d, 0xbe, 0x82, 0xe8, 0x35, 0xbe, 0xa5, 0x0e, 0x0c, 0xbd,
    0x3d, 0xed, 0xaa, 0x3d, 0x49, 0xfb, 0x39, 0xbe, 0xf8, 0xa8, 0xaf, 0x3d,
    0xc1, 0xf2, 0xfb, 0xbd, 0x38, 0xb1, 0xfc, 0xbd, 0xb9, 0x33, 0xd8, 0xbd,
    0x1b, 0x1d, 0x1d, 0xbd, 0xb4, 0x82, 0xa2, 0xbd, 0x74, 0x8d, 0x60, 0xbe,
    0x21, 0x03, 0x46, 0xbe, 0xef, 0xac, 0x29, 0xbe, 0x7e, 0xc3, 0x5b, 0xbe,
    0xc0, 0x3d, 0xe0, 0xbc, 0x05, 0xdc, 0xdc, 0xbb, 0x77, 0x56, 0xcc, 0x3d,
    0xdc, 0xd8, 0x1a, 0xbd, 0x93, 0xaf, 0x39, 0xbc, 0xd2, 0x86, 0x04, 0x3d,
    0xda, 0x7d, 0x37, 0xbe, 0x4b, 0x70, 0x99, 0xbd, 0x5b, 0x83, 0x84, 0xbd,
    0x0b, 0x76, 0x12, 0x3d, 0xb3, 0x05, 0xd5, 0xbd, 0x1b, 0x17, 0x09, 0xbe,
    0x28, 0xc2, 0x30, 0x3d, 0x9d, 0x5d, 0x43, 0xbe, 0x4d, 0x52, 0x85, 0xbe,
    0xc0, 0x93, 0xc1, 0xbe, 0x66, 0xa5, 0x57, 0xbe, 0x19, 0xf8, 0x97, 0xbe,
    0xfd, 0xf3, 0xac, 0xbc, 0xe4, 0xb4, 0xbd, 0xbe, 0x32, 0xd0, 0x82, 0xbd,
    0x1a, 0x99, 0x92, 0x3c, 0xc6, 0xa4, 0x14, 0xbf, 0xb3, 0x36, 0x2f, 0xbe,
    0x4d, 0x72, 0x4e, 0xbf, 0x69, 0xe1, 0x43, 0xbf, 0x30, 0x15, 0x00, 0xbe,
    0xd1, 0xb9, 0x4f, 0xbd, 0x2f, 0xab, 0xbb, 0x3e, 0x35, 0x89, 0xf3, 0x3d,
    0x38, 0x15, 0x1b, 0xbf, 0x3f, 0x69, 0x10, 0xbe, 0x9b, 0x95, 0xa5, 0xbc,
    0x68, 0xe2, 0xb6, 0x3d, 0xa9, 0x23, 0xa1, 0xbe, 0x0e, 0xc5, 0x14, 0x3e,
    0xcc, 0xf5, 0x9e, 0x3d, 0xfe, 0x11, 0x12, 0x3e, 0x76, 0xcd, 0xb3, 0x3e,
    0x68, 0xd3, 0x15, 0xbe, 0x1f, 0x09, 0x36, 0x3e, 0x4d, 0x3c, 0x48, 0x3e,
    0x60, 0x3e, 0x11, 0xbe, 0x30, 0x7c, 0x41, 0x3d, 0x1f, 0xab, 0xd0, 0xbe,
    0xb2, 0x8f, 0xa9, 0xbd, 0xe7, 0x42, 0x29, 0x3e, 0xf9, 0x2a, 0x4d, 0xbe,
    0xbb, 0xe0, 0x0b, 0x3e, 0x5c, 0x95, 0x66, 0xbd, 0x54, 0x77, 0x08, 0x3d,
    0xa4, 0x5e, 0xdf, 0xbd, 0x86, 0xc5, 0xa9, 0x3e, 0x0c, 0xd4, 0xd5, 0xbd,
    0xed, 0xa2, 0x5b, 0x3d, 0x88, 0x40, 0x3d, 0xbe, 0xc8, 0x04, 0x80, 0x3c,
    0xcc, 0x8c, 0x2e, 0xbe, 0x40, 0x12, 0x39, 0xbe, 0x46, 0x1a, 0x35, 0x3e,
    0x72, 0xfc, 0xfd, 0xb9, 0xd4, 0xe9, 0x1c, 0x3f, 0x03, 0xce, 0xaa, 0x3d,
    0xad, 0xab, 0x12, 0xbe, 0x7b, 0x69, 0x54, 0x3e, 0x17, 0xd7, 0xe8, 0x3d,
    0x5c, 0xf4, 0x38, 0xbe, 0xf3, 0xb5, 0x84, 0xbc, 0xcf, 0xa5, 0x10, 0xbe,
    0xc2, 0x66, 0xf4, 0x3b, 0x92, 0x5a, 0x85, 0xbd, 0xea, 0xa8, 0xd0, 0xbd,
    0x76, 0xfe, 0x0e, 0x3e, 0xa4, 0x7f, 0x8b, 0xbd, 0x07, 0x3c, 0x17, 0xbe,
    0xa9, 0x6b, 0x27, 0xbe, 0xcc, 0x2c, 0x92, 0x3d, 0xca, 0xc4, 0xc2, 0x3c,
    0xc2, 0xbe, 0x96, 0x3e, 0xe9, 0x1e, 0xc1, 0x3d, 0xaa, 0xf0, 0x95, 0xbe,
    0xf9, 0x05, 0xb6, 0x3c, 0xad, 0x5e, 0x69, 0xbe, 0x4b, 0xc2, 0x93, 0x3d,
    0x9b, 0xc7, 0xa8, 0xbd, 0xa7, 0x70, 0x26, 0xbc, 0x92, 0x0a, 0x36, 0x3d,
    0x3e, 0xea, 0x84, 0xbd, 0x73, 0xf5, 0x64, 0xbe, 0xc6, 0x99, 0x23, 0x3d,
    0xd4, 0x5a, 0x91, 0xbd, 0x6a, 0xb9, 0xdb, 0xbd, 0x2c, 0x1a, 0x4c, 0xbe,
    0xee, 0x3b, 0xba, 0x3d, 0x9a, 0x87, 0x5d, 0x3d, 0xda, 0x06, 0xb2, 0x3e,
    0x9b, 0x2c, 0xd9, 0xbd, 0xc7, 0x5f, 0x3e, 0xbe, 0xf6, 0x05, 0x0a, 0xbe,
    0x1a, 0x51, 0xc9, 0xbd, 0xff, 0xde, 0x83, 0xbd, 0xe3, 0x84, 0x9b, 0xbb,
    0xd8, 0xbd, 0xa6, 0xbd, 0xe9, 0x9a, 0x4a, 0xbf, 0x16, 0xc7, 0x3a, 0xbe,
    0x79, 0xd9, 0x54, 0x3d, 0xc0, 0x02, 0xc6, 0xbd, 0xe2, 0x87, 0x8f, 0x3d,
    0xec, 0xe1, 0x93, 0x3d, 0x9c, 0x1e, 0xd2, 0xba, 0x31, 0x9f, 0x51, 0xbd,
    0x0a, 0xdf, 0xff, 0xff, 0x10, 0x00, 0x00, 0x00, 0x08, 0x00, 0x00, 0x00,
    0x1c, 0x00, 0x00, 0x00, 0x38, 0x00, 0x00, 0x00, 0x04, 0x00, 0x00, 0x00,
    0x10, 0x00, 0x00, 0x00, 0x04, 0x00, 0x00, 0x00, 0x01, 0x00, 0x00, 0x00,
    0x08, 0x00, 0x00, 0x00, 0x1a, 0x00, 0x00, 0x00, 0x73, 0x65, 0x71, 0x75,
    0x65, 0x6e, 0x74, 0x69, 0x61, 0x6c, 0x2f, 0x63, 0x6f, 0x6e, 0x76, 0x32,
    0x64, 0x5f, 0x31, 0x2f, 0x43, 0x6f, 0x6e, 0x76, 0x32, 0x44, 0x00, 0x00,
    0x04, 0xdf, 0xff, 0xff, 0xfa, 0xdf, 0xff, 0xff, 0x04, 0x00, 0x00, 0x00,
    0x80, 0x01, 0x00, 0x00, 0xbe, 0x37, 0x09, 0x3e, 0x07, 0x88, 0xb2, 0xbe,
    0x27, 0xcc, 0x60, 0x3e, 0xb2, 0x76, 0x77, 0x3c, 0xfe, 0xe6, 0x03, 0xbe,
    0x07, 0x11, 0x3f, 0x3e, 0xa8, 0x84, 0x46, 0xbe, 0x18, 0x5a, 0xe8, 0x3d,
    0xb6, 0x0d, 0x87, 0xbc, 0xdb, 0xa6, 0x30, 0xbe, 0x0c, 0x0a, 0x5e, 0x3e,
    0x44, 0x96, 0xea, 0x3b, 0x21, 0x62, 0x3e, 0x3e, 0x29, 0x40, 0x33, 0xbc,
    0xcc, 0xe5, 0x2d, 0x3e, 0x0f, 0x99, 0xb9, 0xbd, 0x85, 0x1d, 0x62, 0x3e,
    0x48, 0x9a, 0x6e, 0x3e, 0x55, 0xf3, 0x52, 0x3d, 0x97, 0x33, 0xb0, 0x3d,
    0x06, 0x72, 0x08, 0xbd, 0x28, 0x3f, 0xe1, 0x3b, 0x84, 0x8c, 0xa7, 0xbe,
    0x5e, 0xce, 0xe0, 0xbe, 0x97, 0x98, 0x8f, 0x3d, 0x45, 0x2e, 0x52, 0x3e,
    0xd1, 0xf0, 0x07, 0x3d, 0xbc, 0xfb, 0x8d, 0x3c, 0x92, 0xe4, 0xdc, 0xbd,
    0xc2, 0x9b, 0x23, 0x3e, 0xb8, 0x5b, 0xeb, 0xbd, 0xfe, 0xe1, 0x2a, 0xbe,
    0x6e, 0xd4, 0x7a, 0xbe, 0x71, 0xb6, 0xd8, 0xbd, 0xd2, 0xee, 0xff, 0xbd,
    0x51, 0x1c, 0xa9, 0xbc, 0x93, 0x27, 0x07, 0xbd, 0xa8, 0x27, 0x94, 0xbd,
    0x20, 0x8f, 0xde, 0xbd, 0x57, 0x84, 0xa8, 0xbc, 0x6e, 0x6d, 0xbe, 0x3d,
    0x71, 0x9a, 0x56, 0xbc, 0xde, 0x2c, 0x83, 0xbd, 0xff, 0x9c, 0x95, 0x3d,
    0xc6, 0x25, 0xa2, 0xbd, 0x1c, 0x1b, 0xbc, 0x3c, 0xcc, 0x3f, 0x50, 0x3d,
    0xb2, 0x65, 0x28, 0xbe, 0x32, 0x4c, 0xba, 0x3d, 0xda, 0x3c, 0x81, 0xbd,
    0x9c, 0x74, 0x35, 0x3c, 0x0f, 0x6a, 0xab, 0x3e, 0xcd, 0xb5, 0xd8, 0x3d,
    0x67, 0x20, 0x1a, 0x3c, 0xdc, 0xe0, 0x73, 0xbd, 0xc8, 0x2c, 0xec, 0x3b,
    0xf7, 0x24, 0xf8, 0x3d, 0x8a, 0xbe, 0x9e, 0xbe, 0xc7, 0xfa, 0x06, 0xbe,
    0xe4, 0xec, 0x52, 0x3c, 0xe8, 0x02, 0xb0, 0xbd, 0x43, 0xb4, 0x2c, 0xbe,
    0xa1, 0x05, 0xb4, 0x3b, 0x9d, 0x1e, 0x09, 0xbe, 0x6f, 0x79, 0x03, 0xbf,
    0x25, 0x4d, 0x05, 0xbe, 0x0a, 0xac, 0x42, 0x3e, 0x9f, 0x2e, 0xb0, 0x3e,
    0x9c, 0x6c, 0x48, 0x3e, 0xdd, 0xc2, 0x0b, 0x3d, 0x42, 0x61, 0xab, 0x3e,
    0xd8, 0x68, 0x86, 0xbc, 0xc7, 0x22, 0x08, 0x3e, 0xa1, 0x3f, 0xcd, 0xbd,
    0xa5, 0xa0, 0x9a, 0xbd, 0x90, 0x52, 0xef, 0xbe, 0x03, 0x4a, 0x1c, 0xbe,
    0x8e, 0x4d, 0xc2, 0xbe, 0xc2, 0xcd, 0x02, 0x3f, 0x2b, 0x11, 0x31, 0x3e,
    0x43, 0xed, 0x9e, 0x3e, 0xaf, 0x55, 0x82, 0x3d, 0x03, 0x9d, 0x59, 0x3e,
    0xa4, 0xa4, 0x34, 0x3e, 0xc5, 0x66, 0x89, 0x3e, 0x0a, 0xf0, 0xb4, 0x3e,
    0x1c, 0x3c, 0x0b, 0x3d, 0xc5, 0xca, 0x33, 0x3b, 0x98, 0x86, 0xb2, 0x3d,
    0x11, 0xab, 0x46, 0xbd, 0x26, 0xfb, 0x3b, 0xbe, 0xb0, 0x80, 0xc2, 0xbe,
    0x88, 0x89, 0xfa, 0x3b, 0xec, 0x9e, 0xc0, 0xbc, 0xe5, 0x78, 0x84, 0xbd,
    0x6d, 0x86, 0x9b, 0x3b, 0xe2, 0xe0, 0xff, 0xff, 0x10, 0x00, 0x00, 0x00,
    0x07, 0x00, 0x00, 0x00, 0x1c, 0x00, 0x00, 0x00, 0x38, 0x00, 0x00, 0x00,
    0x04, 0x00, 0x00, 0x00, 0x08, 0x00, 0x00, 0x00, 0x04, 0x00, 0x00, 0x00,
    0x03, 0x00, 0x00, 0x00, 0x01, 0x00, 0x00, 0x00, 0x18, 0x00, 0x00, 0x00,
    0x73, 0x65, 0x71, 0x75, 0x65, 0x6e, 0x74, 0x69, 0x61, 0x6c, 0x2f, 0x63,
    0x6f, 0x6e, 0x76, 0x32, 0x64, 0x2f, 0x43, 0x6f, 0x6e, 0x76, 0x32, 0x44,
    0x00, 0x00, 0x00, 0x00, 0xdc, 0xe0, 0xff, 0xff, 0xd2, 0xe1, 0xff, 0xff,
    0x04, 0x00, 0x00, 0x00, 0xc0, 0x00, 0x00, 0x00, 0x31, 0x15, 0x44, 0x3e,
    0xb2, 0x28, 0xc3, 0x3d, 0x92, 0xd0, 0x4d, 0x3e, 0x54, 0x67, 0xec, 0xbd,
    0x0d, 0x99, 0x61, 0xbd, 0xeb, 0x5a, 0x0e, 0xbe, 0x7a, 0xaf, 0xbd, 0xbe,
    0x69, 0xaf, 0x81, 0x3e, 0x27, 0x49, 0x8d, 0x3d, 0x63, 0xd2, 0x24, 0xbd,
    0x2c, 0x1a, 0x6e, 0x3e, 0xac, 0xb3, 0x49, 0x3e, 0xa0, 0xf8, 0xd6, 0xbe,
    0x30, 0x1a, 0xe3, 0x3e, 0x9c, 0xcb, 0xe6, 0x3c, 0x42, 0xd4, 0x99, 0x3e,
    0x6a, 0x3a, 0x1f, 0x3e, 0xce, 0x9c, 0x8a, 0xbd, 0x6d, 0xc4, 0xc5, 0xbe,
    0x0b, 0x43, 0xd3, 0x3d, 0x8f, 0x74, 0xb1, 0x3c, 0xa3, 0xa7, 0x22, 0xbe,
    0x46, 0xd4, 0x97, 0xbe, 0x18, 0xe8, 0x99, 0xbe, 0x34, 0x87, 0xc7, 0x3d,
    0x99, 0xb8, 0xbc, 0xbd, 0xfd, 0xc2, 0x16, 0x3e, 0xb0, 0xc0, 0xaa, 0x3e,
    0xf0, 0x3a, 0xc0, 0xbe, 0x66, 0x7a, 0x6b, 0xbe, 0x28, 0x46, 0x5a, 0xbd,
    0x8a, 0xa3, 0x61, 0xbd, 0x43, 0x4a, 0x65, 0x3e, 0x4e, 0xe2, 0x1f, 0x3e,
    0x65, 0x14, 0x2f, 0xbf, 0xe8, 0x6b, 0x9c, 0xbc, 0x93, 0xf0, 0xe0, 0xbd,
    0x54, 0x25, 0x41, 0xbe, 0x2f, 0x7b, 0xc9, 0x3e, 0x55, 0xb1, 0x1a, 0xbf,
    0x42, 0x38, 0xb2, 0xbc, 0xd4, 0xd1, 0xdd, 0xbd, 0x71, 0x70, 0x69, 0x3e,
    0x24, 0x46, 0x28, 0x3e, 0xfc, 0xec, 0xea, 0xbe, 0xa0, 0xf5, 0x20, 0x3e,
    0xd7, 0xee, 0x71, 0x3d, 0x68, 0x0e, 0x05, 0xbf, 0xfa, 0xe1, 0xff, 0xff,
    0x10, 0x00, 0x00, 0x00, 0x06, 0x00, 0x00, 0x00, 0x14, 0x00, 0x00, 0x00,
    0x30, 0x00, 0x00, 0x00, 0x02, 0x00, 0x00, 0x00, 0x03, 0x00, 0x00, 0x00,
    0x10, 0x00, 0x00, 0x00, 0x19, 0x00, 0x00, 0x00, 0x73, 0x65, 0x71, 0x75,
    0x65, 0x6e, 0x74, 0x69, 0x61, 0x6c, 0x2f, 0x64, 0x65, 0x6e, 0x73, 0x65,
    0x5f, 0x31, 0x2f, 0x4d, 0x61, 0x74, 0x4d, 0x75, 0x6c, 0x00, 0x00, 0x00,
    0xec, 0xe1, 0xff, 0xff, 0xe2, 0xe2, 0xff, 0xff, 0x04, 0x00, 0x00, 0x00,
    0x00, 0x1c, 0x00, 0x00, 0x40, 0x8f, 0x19, 0xbf, 0x69, 0xfb, 0x1c, 0x3d,
    0x62, 0x51, 0xba, 0xbe, 0x61, 0xc5, 0xae, 0xbe, 0xf8, 0x60, 0xe6, 0xbb,
    0x0f, 0x28, 0xcf, 0xbc, 0x9a, 0xb2, 0x1c, 0x3c, 0x78, 0x0d, 0x84, 0x3d,
    0x57, 0xfa, 0x12, 0xbf, 0x69, 0xab, 0x62, 0xbe, 0xbf, 0x58, 0x44, 0xbe,
    0x7e, 0x03, 0x5c, 0xbe, 0xc9, 0xd7, 0x0f, 0xbe, 0xe9, 0xae, 0x6c, 0xbe,
    0x02, 0x50, 0x0d, 0xbe, 0xfc, 0xeb, 0xb4, 0x3e, 0x31, 0x1d, 0x39, 0xbe,
    0x92, 0x50, 0x93, 0x3e, 0x78, 0x92, 0xd8, 0xbe, 0xfc, 0xb9, 0x5f, 0xbe,
    0x0a, 0x15, 0x3f, 0xbd, 0x0d, 0x7b, 0x37, 0x3e, 0x2e, 0x1b, 0xbb, 0x3d,
    0xcb, 0xdd, 0x3b, 0x3d, 0xb4, 0xd2, 0x99, 0x3d, 0x3e, 0xbd, 0xc7, 0xbe,
    0x7e, 0x1c, 0xd1, 0x3e, 0x20, 0x9a, 0x9f, 0xbd, 0xc4, 0x9a, 0xec, 0x3d,
    0x6d, 0x85, 0x26, 0xbe, 0x35, 0x84, 0x4a, 0x3e, 0xd2, 0xf9, 0x8d, 0x3e,
    0x85, 0x28, 0x98, 0xbe, 0x17, 0xd3, 0x5d, 0x3d, 0x8d, 0x63, 0xc3, 0xbe,
    0x4c, 0x89, 0x82, 0x3d, 0x39, 0x75, 0xd8, 0xbd, 0x55, 0xec, 0x07, 0x3e,
    0x80, 0xbb, 0xb6, 0x3d, 0xc8, 0x35, 0xd8, 0x3c, 0xaf, 0xba, 0x0f, 0x3e,
    0x0a, 0xa5, 0x36, 0xbe, 0xbd, 0xba, 0xef, 0x3e, 0x40, 0x78, 0xf6, 0xba,
    0x9d, 0xaf, 0x33, 0x3d, 0x42, 0x4c, 0xd4, 0x3d, 0x97, 0x51, 0xc6, 0x3d,
    0x12, 0xa1, 0xcc, 0x3c, 0x34, 0x1e, 0x22, 0xbd, 0x0a, 0x2a, 0x23, 0x3e,
    0x46, 0x58, 0xc0, 0x3d, 0xa5, 0x6b, 0x0a, 0xbc, 0xd6, 0x54, 0x72, 0xbe,
    0xec, 0xc5, 0x95, 0x3d, 0xa2, 0xc0, 0x41, 0x3d, 0x28, 0xa2, 0xdb, 0x3c,
    0x7c, 0xfe, 0xce, 0x3d, 0x79, 0xfb, 0x38, 0xbe, 0xf7, 0x64, 0xb3, 0x3e,
    0x7b, 0x7c, 0x10, 0x3d, 0xde, 0x2d, 0x4f, 0x3d, 0x59, 0x56, 0x4a, 0xbd,
    0x43, 0xfc, 0xfa, 0x3d, 0xeb, 0xbd, 0x44, 0x3c, 0x8b, 0x48, 0x8b, 0xbd,
    0x0e, 0xc6, 0x80, 0x3e, 0xc6, 0x3e, 0xa5, 0xbe, 0x5b, 0x9b, 0x2b, 0xbe,
    0x2a, 0x9f, 0x94, 0xbe, 0x4a, 0x5d, 0xcd, 0x3d, 0x2d, 0x46, 0xb3, 0x3d,
    0x78, 0xe4, 0x00, 0x3d, 0xdf, 0x89, 0x1b, 0xbd, 0x1c, 0xa3, 0x2c, 0xbe,
    0xfe, 0xff, 0xa8, 0x3e, 0x5b, 0x8d, 0x84, 0xbe, 0x5e, 0x72, 0x66, 0x3d,
    0x3d, 0xe0, 0x71, 0xbd, 0x06, 0x09, 0xce, 0x3d, 0x50, 0xb6, 0x0e, 0x3e,
    0x0c, 0x7a, 0xca, 0xbe, 0xd7, 0x3f, 0x0b, 0x3e, 0xdd, 0xff, 0x68, 0xbe,
    0x06, 0x49, 0xeb, 0x3c, 0xe7, 0xa1, 0xd9, 0xbe, 0xbf, 0xc5, 0x6e, 0xbd,
    0x29, 0x43, 0x17, 0x3d, 0x23, 0xa5, 0x91, 0x3c, 0xac, 0xff, 0x84, 0xbd,
    0x0b, 0xa7, 0x03, 0xbe, 0x68, 0x2f, 0x12, 0x3e, 0xe5, 0x5d, 0x41, 0xbf,
    0x62, 0xdc, 0x6e, 0xbd, 0xd7, 0x47, 0x4b, 0xbe, 0xcd, 0x05, 0x3e, 0x3d,
    0xf6, 0x32, 0x71, 0x3d, 0x85, 0xa6, 0x91, 0xbd, 0x56, 0xa8, 0x2c, 0x3e,
    0xde, 0x37, 0x51, 0xbe, 0xcd, 0x32, 0xcd, 0xbd, 0x6a, 0x5b, 0x8d, 0xbe,
    0xaf, 0x07, 0x7c, 0x3d, 0x6b, 0xd8, 0x05, 0xbd, 0x46, 0xcf, 0x4a, 0x3c,
    0xae, 0xe1, 0xb5, 0xbc, 0xba, 0x6b, 0x5a, 0xbd, 0x94, 0xb7, 0xf6, 0xbd,
    0x52, 0xbf, 0xed, 0xbe, 0x7a, 0x96, 0x8d, 0xbd, 0xcd, 0xf4, 0x64, 0xbe,
    0xa4, 0x53, 0x84, 0xba, 0x94, 0x0b, 0xb5, 0x3d, 0xb9, 0x7e, 0x06, 0xbe,
    0x38, 0x25, 0x84, 0x3d, 0xd4, 0x07, 0x90, 0x3d, 0x8d, 0xff, 0x23, 0xbd,
    0xd5, 0xd2, 0x5a, 0x3d, 0xc7, 0xf9, 0x20, 0xbe, 0x8e, 0x70, 0x4b, 0xbe,
    0xc2, 0x67, 0x84, 0xbe, 0xd0, 0xe4, 0xef, 0x3d, 0x8e, 0x21, 0x1f, 0x3e,
    0x26, 0x84, 0x9e, 0x3d, 0xfc, 0x6a, 0xa5, 0x3d, 0x5c, 0xc0, 0x0a, 0xbe,
    0x01, 0x0f, 0x1c, 0xbe, 0x31, 0x65, 0x5f, 0xbe, 0xd2, 0x03, 0xe7, 0x3d,
    0x26, 0x4a, 0xd8, 0xbd, 0x6d, 0x5e, 0x2e, 0xbe, 0x62, 0xb3, 0x83, 0xbd,
    0x77, 0xc6, 0x5b, 0x3c, 0x1b, 0x3e, 0x6f, 0xbc, 0xed, 0x42, 0x27, 0xbe,
    0x5e, 0x5e, 0x69, 0xbe, 0x76, 0xe6, 0x63, 0xbc, 0x21, 0x67, 0x3b, 0xbc,
    0x41, 0x0b, 0xc0, 0xbd, 0x98, 0x93, 0x4f, 0xbe, 0xd4, 0x10, 0x75, 0xbe,
    0x36, 0xbc, 0x3e, 0x3d, 0xe3, 0x7c, 0xa4, 0x3d, 0x6d, 0x77, 0x09, 0xbd,
    0xad, 0x8f, 0x2c, 0xbe, 0xfa, 0x5f, 0x1c, 0xbc, 0x75, 0xd1, 0xc8, 0x3d,
    0xf9, 0xd9, 0x12, 0x3e, 0xa0, 0xf8, 0x51, 0x3d, 0xfb, 0xdd, 0xe5, 0xbd,
    0x57, 0xcf, 0x27, 0xbe, 0xf6, 0xf3, 0xfc, 0xbd, 0x36, 0x9a, 0x9d, 0xbe,
    0xf3, 0x9b, 0x3d, 0x3e, 0x6d, 0xbb, 0x7f, 0xbe, 0x64, 0x59, 0x20, 0x3e,
    0xa7, 0x8c, 0xff, 0xbd, 0x08, 0xc2, 0x3e, 0x3e, 0x90, 0xaa, 0x3c, 0xbd,
    0x60, 0x62, 0xb7, 0xbd, 0x56, 0xef, 0x1a, 0x3e, 0x0e, 0x21, 0x27, 0xbe,
    0x14, 0x1c, 0x21, 0x3e, 0x33, 0x1e, 0x8b, 0xbd, 0x07, 0x39, 0x01, 0x3c,
    0xcd, 0x19, 0x18, 0xbd, 0x19, 0x1d, 0x56, 0xba, 0x4d, 0xcd, 0x4f, 0xbb,
    0xf4, 0xdf, 0x57, 0xbe, 0x1d, 0x25, 0x0f, 0xbd, 0x4f, 0x33, 0x68, 0x3d,
    0x5c, 0x17, 0x3c, 0xbe, 0x2b, 0xd3, 0x03, 0xbd, 0x52, 0x29, 0x4e, 0xbe,
    0x24, 0x4b, 0x61, 0xbe, 0x45, 0x62, 0x82, 0xbe, 0x90, 0xa6, 0xcc, 0xbd,
    0xa4, 0xa0, 0xa8, 0x3d, 0x20, 0x7e, 0xf4, 0xbd, 0xba, 0xdf, 0x05, 0xbe,
    0x2a, 0x4b, 0x10, 0x3e, 0x1c, 0xe0, 0x2e, 0xbe, 0xaf, 0x1c, 0x1c, 0xbe,
    0xae, 0x6c, 0x6c, 0xbe, 0x47, 0x5e, 0x21, 0xbe, 0xd8, 0x44, 0x4f, 0xbd,
    0xbf, 0x7b, 0xd5, 0x3d, 0x3b, 0x31, 0x9b, 0xbc, 0x4e, 0x80, 0x48, 0xbe,
    0xce, 0xc6, 0x31, 0x3e, 0xe9, 0x32, 0x00, 0xbe, 0x91, 0x02, 0x2e, 0xbe,
    0xca, 0x91, 0x43, 0x3e, 0x3c, 0x31, 0x2f, 0xbe, 0xdf, 0x29, 0xb2, 0x3d,
    0x0c, 0xfc, 0xa7, 0xbd, 0xdb, 0x91, 0x16, 0x3e, 0xa4, 0x5c, 0x03, 0xbe,
    0xe6, 0xe3, 0x73, 0xbe, 0xbd, 0x5f, 0xce, 0xbd, 0xf4, 0x7e, 0x80, 0xbd,
    0x17, 0xa1, 0x3e, 0x3d, 0x81, 0x64, 0x79, 0x3d, 0x90, 0x79, 0x83, 0xbe,
    0xdd, 0x4c, 0x29, 0x3d, 0xbc, 0x0e, 0xc6, 0xbd, 0x63, 0x2d, 0x0a, 0x3c,
    0x58, 0x6d, 0x3e, 0xbd, 0x9e, 0xd9, 0x5c, 0xbe, 0x9e, 0x77, 0x48, 0xbe,
    0xbc, 0x39, 0x44, 0xbe, 0xbc, 0xb8, 0x3e, 0x3e, 0x22, 0x92, 0xfb, 0x3d,
    0xcb, 0x44, 0x4b, 0xbe, 0xa8, 0xe6, 0x02, 0x3e, 0x54, 0x69, 0xa0, 0xbd,
    0x4e, 0x9b, 0x82, 0xbe, 0x28, 0xc3, 0x36, 0x3d, 0x9b, 0xc2, 0x4a, 0x3b,
    0x7b, 0x20, 0xd8, 0xbd, 0x65, 0x85, 0x83, 0xbc, 0xde, 0x60, 0xb4, 0xbd,
    0x44, 0x8e, 0x1c, 0xbe, 0x7b, 0x54, 0x22, 0xbe, 0x08, 0x9f, 0xe7, 0x3d,
    0x44, 0x71, 0xed, 0xbd, 0xb3, 0x64, 0xc9, 0xbd, 0x1d, 0x25, 0x8b, 0xbd,
    0xa2, 0xbc, 0x55, 0x3d, 0x59, 0x7c, 0xd5, 0x3d, 0x3b, 0x7c, 0x56, 0xbe,
    0x36, 0x9f, 0xca, 0xbe, 0xe1, 0xe4, 0x37, 0x3e, 0x97, 0xa7, 0x2f, 0xbe,
    0x4f, 0x2e, 0x90, 0x3f, 0x52, 0xc1, 0xb2, 0x3c, 0x4c, 0x28, 0x73, 0x3d,
    0xcb, 0xd1, 0x9e, 0xbb, 0x16, 0x5b, 0x07, 0xbd, 0x35, 0x3e, 0x61, 0xbe,
    0xcc, 0x84, 0x37, 0x3f, 0x3d, 0x4c, 0xdb, 0xbc, 0x80, 0xca, 0x6d, 0x3d,
    0x74, 0x69, 0xb9, 0x3d, 0xeb, 0x77, 0x17, 0x3d, 0x99, 0x6e, 0x31, 0x3e,
    0x0d, 0x2a, 0xd2, 0x3c, 0x49, 0x14, 0x2d, 0xbe, 0xad, 0xfe, 0x79, 0xbd,
    0x88, 0x89, 0xc9, 0xbd, 0xb3, 0x3b, 0x0b, 0x3f, 0xe7, 0x40, 0xd6, 0xbd,
    0x7e, 0xea, 0x01, 0x3f, 0xe2, 0xa2, 0xbc, 0xbd, 0x92, 0x8b, 0x8b, 0x3d,
    0xf5, 0x9b, 0x3c, 0xbe, 0x92, 0xa8, 0x74, 0x3d, 0x7a, 0x67, 0x71, 0x3d,
    0x1f, 0xc0, 0x2f, 0x3e, 0x23, 0x40, 0x13, 0xbe, 0xb1, 0x57, 0x2d, 0x3d,
    0xe0, 0xdd, 0x49, 0xb6, 0x67, 0x3a, 0x30, 0xbe, 0x95, 0x5e, 0xad, 0xbe,
    0xce, 0x4f, 0x8e, 0xbe, 0x45, 0xf0, 0xf7, 0x3d, 0x24, 0x63, 0x6b, 0x3f,
    0xe4, 0x07, 0x06, 0xbe, 0xd4, 0x3e, 0x0e, 0x3f, 0x6d, 0x06, 0x4e, 0xbe,
    0x94, 0xa7, 0x90, 0x3d, 0x19, 0x96, 0x30, 0x3d, 0xae, 0x6f, 0xda, 0x3e,
    0x78, 0xa8, 0xb7, 0xbd, 0xd8, 0x05, 0x46, 0x3e, 0x6b, 0x0d, 0x30, 0xbd,
    0xb3, 0x49, 0x63, 0xbd, 0xa7, 0xad, 0x14, 0x3d, 0x89, 0x8d, 0x19, 0xbe,
    0x70, 0xc0, 0x42, 0xbe, 0xaf, 0x44, 0x0f, 0xbe, 0x12, 0xe5, 0x1c, 0x3e,
    0xf0, 0x29, 0x2d, 0x3f, 0xa9, 0xb1, 0x83, 0xbd, 0xbd, 0xdf, 0xa1, 0x3f,
    0x88, 0x83, 0x16, 0xbe, 0x84, 0x4c, 0x5e, 0xbe, 0x1e, 0xf3, 0x32, 0x3d,
    0x57, 0xa4, 0xaf, 0x3e, 0xf8, 0x82, 0x23, 0x3e, 0x6b, 0x15, 0xa2, 0xbd,
    0xa8, 0xc9, 0x44, 0xbe, 0xda, 0x29, 0x9a, 0xbc, 0x28, 0xd3, 0x91, 0x3d,
    0xc8, 0x02, 0x03, 0xbe, 0x7b, 0x2c, 0xa4, 0xbe, 0xf8, 0xd4, 0x55, 0xbe,
    0x44, 0xd0, 0x08, 0x3e, 0x4d, 0x9e, 0x4e, 0x3f, 0x78, 0xf8, 0x1f, 0xbd,
    0x83, 0x3f, 0xe1, 0x3d, 0x14, 0xe1, 0x74, 0xbe, 0x4c, 0x88, 0x5b, 0xbc,
    0x50, 0x08, 0xa6, 0xbd, 0xb7, 0x43, 0x8e, 0x3e, 0xdb, 0x5a, 0x78, 0xbe,
    0xaf, 0x2b, 0x97, 0x3b, 0xef, 0x52, 0x12, 0xbd, 0x1a, 0xf4, 0xbe, 0xbd,
    0x84, 0x4b, 0x70, 0x3d, 0xe0, 0x8d, 0xa0, 0xbc, 0x06, 0x8b, 0x8a, 0xbe,
    0x9b, 0x75, 0xb3, 0xbe, 0x06, 0xb5, 0xca, 0x3d, 0x2b, 0xdb, 0x7a, 0x3f,
    0x16, 0xaf, 0x6e, 0xbe, 0xcf, 0xdd, 0x17, 0x3e, 0x94, 0x0f, 0xf9, 0x3d,
    0xb7, 0xd8, 0x10, 0xbd, 0x3c, 0x28, 0x0e, 0xbe, 0x6b, 0x43, 0xc2, 0x3d,
    0x99, 0xc9, 0x87, 0xbe, 0xd5, 0x24, 0x00, 0x3f, 0x19, 0xa3, 0xa6, 0xbd,
    0x19, 0x7c, 0xa6, 0xbe, 0x5c, 0x11, 0x69, 0xbe, 0x75, 0x2f, 0xcf, 0xb9,
    0x98, 0xb2, 0xb3, 0xbe, 0x52, 0x9c, 0x97, 0x3c, 0x5c, 0x16, 0x55, 0xbe,
    0x64, 0xa4, 0xb8, 0xbb, 0x99, 0x90, 0x90, 0xbd, 0x83, 0x02, 0x4d, 0x3e,
    0x44, 0x52, 0x44, 0x3d, 0x9f, 0xdf, 0x30, 0xbd, 0xcc, 0x54, 0xa1, 0xbe,
    0xbc, 0x7d, 0x85, 0xbe, 0x2e, 0xff, 0x60, 0xbe, 0x7c, 0xba, 0x0a, 0xbe,
    0x68, 0x62, 0xde, 0x3d, 0xd4, 0x1d, 0x20, 0xbe, 0x10, 0xf7, 0x0b, 0xbc,
    0x89, 0x6e, 0x02, 0xbe, 0xe4, 0x82, 0xd1, 0xbe, 0xad, 0xcf, 0xa0, 0xbd,
    0xa0, 0x86, 0x80, 0xbc, 0xfe, 0x4b, 0x79, 0x3d, 0xef, 0xb8, 0xe6, 0x3d,
    0xfb, 0x6b, 0x3f, 0xbe, 0x79, 0x39, 0xb4, 0xbd, 0x87, 0xb5, 0x37, 0xbe,
    0x45, 0x9e, 0xd1, 0x3d, 0xe3, 0xb3, 0xfd, 0x3b, 0x8c, 0xab, 0xcf, 0xba,
    0xb0, 0x5a, 0xd0, 0x3d, 0x4e, 0xee, 0x1a, 0xbe, 0x1d, 0x77, 0xf7, 0xbd,
    0x38, 0x07, 0x10, 0x3e, 0x54, 0x3e, 0x9c, 0xbd, 0xab, 0xca, 0x5f, 0xbe,
    0xa6, 0xf8, 0x7f, 0xbe, 0xa1, 0xc2, 0xd0, 0x3c, 0x22, 0x3d, 0x18, 0xbe,
    0x6b, 0x54, 0x26, 0xbd, 0xa2, 0xd4, 0xd6, 0xbd, 0x6c, 0xdc, 0x12, 0xbe,
    0xe7, 0x61, 0x06, 0xbd, 0xbe, 0xee, 0xf3, 0x3d, 0x14, 0x42, 0xce, 0xbc,
    0x9b, 0xf1, 0x20, 0xbe, 0xf2, 0x0e, 0x65, 0x3d, 0x2a, 0x6e, 0x13, 0x3a,
    0x6e, 0x9c, 0xef, 0xbd, 0xa9, 0x82, 0xc5, 0x3d, 0x15, 0xee, 0xfa, 0xbc,
    0xcc, 0x5a, 0xc4, 0xbe, 0xb5, 0xad, 0x2a, 0xbe, 0x9a, 0x7d, 0xc8, 0xbd,
    0xae, 0xfb, 0x67, 0xbe, 0x26, 0xb4, 0xf0, 0x3c, 0x27, 0xc1, 0x48, 0xbe,
    0x83, 0x8a, 0x4a, 0x3e, 0x57, 0x8f, 0xb7, 0xbc, 0x83, 0x23, 0x12, 0x3e,
    0x00, 0xc2, 0x26, 0x3e, 0xfa, 0xda, 0x5c, 0xbe, 0x6c, 0x00, 0x70, 0xbc,
    0x41, 0x9a, 0xb7, 0x3d, 0xf1, 0xd1, 0x12, 0xbd, 0x9b, 0xe7, 0x18, 0xbd,
    0x9f, 0x8f, 0x7a, 0xbe, 0xf8, 0x16, 0x93, 0xbe, 0xaf, 0x4d, 0xb8, 0xbe,
    0xe7, 0xd4, 0x69, 0xbe, 0xea, 0xa0, 0x08, 0xbe, 0x95, 0x08, 0xeb, 0xbd,
    0x54, 0x01, 0xf0, 0xbd, 0x62, 0xcb, 0x47, 0x3e, 0xa1, 0x14, 0x82, 0xbd,
    0x49, 0x77, 0x8b, 0xbd, 0xde, 0xed, 0xdc, 0x3d, 0xbf, 0x13, 0xd6, 0xbd,
    0x36, 0xee, 0x69, 0x3e, 0x2d, 0x74, 0x18, 0x3e, 0x75, 0x70, 0x31, 0x3d,
    0x08, 0xf3, 0xf3, 0x3e, 0x9f, 0xa2, 0x05, 0x3c, 0xbf, 0xde, 0x45, 0xbd,
    0x98, 0xd5, 0x6f, 0xbe, 0x9f, 0xc8, 0xe1, 0x3e, 0xea, 0x17, 0x24, 0x3e,
    0xd7, 0xc3, 0x8d, 0xbc, 0xb9, 0x88, 0x26, 0xbc, 0x25, 0xc7, 0x0b, 0xbd,
    0x33, 0xb8, 0xb1, 0x3e, 0xf0, 0x84, 0x08, 0x3d, 0x76, 0x5b, 0x1c, 0xbd,
    0xee, 0x9d, 0x05, 0x3b, 0x9d, 0x3b, 0x48, 0xbe, 0xb4, 0x60, 0x2a, 0x3e,
    0xa5, 0xe4, 0xa6, 0x3c, 0x2b, 0x9e, 0x76, 0x3d, 0x35, 0xaa, 0x0f, 0x3e,
    0x9a, 0xd4, 0xf3, 0xbd, 0x07, 0x02, 0x8e, 0xbe, 0x1d, 0x94, 0x6f, 0x3e,
    0x7a, 0x16, 0x58, 0xbd, 0xe3, 0x1f, 0x0e, 0x3e, 0x33, 0x3c, 0x39, 0xba,
    0xe2, 0x44, 0xb1, 0x3d, 0x84, 0x25, 0x44, 0x3e, 0x24, 0xa4, 0x36, 0xbd,
    0xc2, 0x8b, 0x13, 0xbe, 0x8b, 0x25, 0xa5, 0x3d, 0x0a, 0x95, 0x7a, 0x3e,
    0x00, 0x75, 0xe7, 0x3c, 0x52, 0xd6, 0xfb, 0xbd, 0xa0, 0x14, 0x83, 0xba,
    0x7f, 0x63, 0x7e, 0xbc, 0x06, 0x7e, 0x42, 0xbe, 0x95, 0x8f, 0x13, 0x3e,
    0xec, 0xb6, 0x19, 0xbd, 0x89, 0x38, 0xc4, 0xbd, 0xb2, 0xbe, 0xb5, 0x3c,
    0x04, 0x36, 0x19, 0xbe, 0x54, 0xa4, 0xf6, 0x3d, 0x08, 0xa0, 0xd7, 0x3d,
    0x51, 0xd6, 0x13, 0xbe, 0xdd, 0x69, 0x2c, 0x3e, 0x2d, 0xd0, 0x8e, 0xbe,
    0x17, 0x22, 0x58, 0x3e, 0xdd, 0xaa, 0xc5, 0xbd, 0x6f, 0xcd, 0x0a, 0x3d,
    0xd0, 0x10, 0x00, 0xbe, 0x86, 0x9b, 0xd7, 0xbd, 0xbd, 0x11, 0x49, 0xbe,
    0x7d, 0x93, 0xa4, 0xbe, 0x4f, 0xdf, 0xc4, 0xbd, 0x96, 0xa2, 0x42, 0xbd,
    0x8a, 0xab, 0xb4, 0xbd, 0x90, 0x8f, 0xa6, 0xbe, 0x34, 0x4b, 0x42, 0xbe,
    0x5a, 0x5c, 0x01, 0xbe, 0xc6, 0x75, 0x49, 0xbe, 0x1f, 0x65, 0xbe, 0x3d,
    0xa8, 0xa9, 0x49, 0xbe, 0xe9, 0x34, 0x89, 0x3b, 0xb3, 0xf4, 0x45, 0x3e,
    0x23, 0xc9, 0x6e, 0xbe, 0xee, 0x20, 0x06, 0xbe, 0xde, 0x7a, 0x0a, 0xbe,
    0xee, 0x0d, 0x82, 0xbe, 0xb1, 0x2b, 0xe2, 0xbe, 0xc1, 0x4a, 0xd1, 0xbd,
    0x34, 0x3f, 0x1a, 0xbd, 0x21, 0xc6, 0x1e, 0x3d, 0x1b, 0x64, 0x7f, 0xbe,
    0x5a, 0x40, 0xc0, 0x3d, 0xa4, 0x09, 0x60, 0xbd, 0x1c, 0xb6, 0x13, 0xbc,
    0xf4, 0x77, 0x69, 0x3d, 0x80, 0x98, 0x50, 0xbe, 0x53, 0xd5, 0x78, 0x3d,
    0xb4, 0x57, 0x17, 0x3e, 0xcd, 0xca, 0x23, 0xbd, 0x76, 0x41, 0xa0, 0xbe,
    0x70, 0x5c, 0xf4, 0xbc, 0xe9, 0x69, 0x61, 0xbe, 0x51, 0x11, 0xd4, 0xbe,
    0xef, 0xca, 0x89, 0x3d, 0xd0, 0x3d, 0x0c, 0x3e, 0x65, 0x9a, 0x28, 0x3d,
    0x54, 0xb0, 0x2f, 0xbe, 0x34, 0xab, 0x33, 0x3e, 0x26, 0xbe, 0x9e, 0xbc,
    0xed, 0xe7, 0x8d, 0xbd, 0xa1, 0x8a, 0xae, 0xbd, 0xa7, 0xc5, 0x13, 0xbe,
    0x9e, 0xfa, 0x0c, 0x3e, 0x46, 0xb4, 0x8a, 0xbd, 0x64, 0x03, 0x86, 0xbe,
    0x6a, 0x74, 0xf7, 0xbe, 0x75, 0xce, 0x5b, 0xbe, 0xd5, 0xac, 0x93, 0xbe,
    0xae, 0x38, 0xca, 0xbe, 0xd2, 0xcf, 0x5b, 0xbe, 0x3c, 0x72, 0x3d, 0x3c,
    0xad, 0x51, 0x1f, 0xbe, 0x10, 0x97, 0xad, 0xbe, 0x93, 0xa6, 0xba, 0x3c,
    0x14, 0x5f, 0x23, 0xbe, 0x50, 0xc4, 0xfb, 0xbd, 0x23, 0xf8, 0x4c, 0xbe,
    0x16, 0x91, 0x86, 0xbe, 0xa4, 0x07, 0x56, 0x3e, 0xf2, 0xc9, 0xb5, 0x3d,
    0x33, 0x77, 0x06, 0xbd, 0x55, 0x47, 0xd7, 0x3e, 0x86, 0xf1, 0x09, 0xbd,
    0xde, 0x2e, 0x00, 0x3d, 0x5b, 0xa6, 0x5c, 0xbe, 0x94, 0xdf, 0x76, 0xbe,
    0xa3, 0xdc, 0x9f, 0xb9, 0x07, 0x8f, 0x1d, 0xbd, 0x89, 0x30, 0xc7, 0x3d,
    0xd1, 0xa6, 0x2a, 0xbe, 0x26, 0xb6, 0xaa, 0x3b, 0x21, 0x24, 0x8e, 0x3d,
    0xe9, 0x27, 0x14, 0xbe, 0x06, 0x97, 0xbb, 0x3d, 0x8b, 0x80, 0xc6, 0xbd,
    0x3e, 0x81, 0x36, 0xbc, 0xa8, 0x8e, 0x02, 0xbe, 0x6e, 0x4c, 0x9c, 0x3e,
    0xf1, 0x30, 0xf4, 0x3d, 0x13, 0xac, 0x81, 0xbc, 0x49, 0xe4, 0x30, 0xbe,
    0xd0, 0x3b, 0x46, 0x3e, 0xd9, 0x30, 0x71, 0xbe, 0xd1, 0xf3, 0x1c, 0x3e,
    0x49, 0x20, 0xfe, 0x3d, 0xbd, 0xc1, 0x82, 0x3d, 0x5f, 0x91, 0x98, 0x3e,
    0x5b, 0x82, 0x2c, 0xbc, 0xb4, 0x85, 0x12, 0xbe, 0x78, 0xc9, 0xfa, 0x3c,
    0xea, 0x99, 0x12, 0x3e, 0x94, 0x10, 0x3f, 0x3d, 0x2e, 0x46, 0xbc, 0xbd,
    0xf8, 0xc0, 0xbb, 0x3e, 0xcd, 0x7e, 0x92, 0x3d, 0x96, 0x97, 0xe6, 0x3c,
    0xf4, 0x14, 0x9e, 0x3e, 0x06, 0xbf, 0x79, 0x3e, 0x5d, 0x5d, 0x10, 0xbe,
    0x30, 0x5d, 0xf9, 0x3d, 0xed, 0xf4, 0x93, 0x3e, 0x7a, 0x35, 0x36, 0x3e,
    0xe7, 0x55, 0x02, 0x3e, 0x39, 0x86, 0xd6, 0x3d, 0xb8, 0xc6, 0x7e, 0x3c,
    0xf7, 0x2d, 0x16, 0x3e, 0x11, 0x68, 0xef, 0xbe, 0xeb, 0x13, 0xeb, 0x3e,
    0x51, 0xbd, 0x8d, 0x3e, 0xbf, 0x34, 0x74, 0x3e, 0xf0, 0x18, 0x8c, 0xbe,
    0xc8, 0xd2, 0xbf, 0x3d, 0x7a, 0x3c, 0xdd, 0xbc, 0x42, 0xfc, 0x58, 0xbe,
    0xfe, 0x50, 0xe1, 0x3e, 0xcc, 0x96, 0x10, 0xbe, 0xeb, 0xe9, 0xc3, 0xbd,
    0xdc, 0xe9, 0x32, 0xbd, 0x7a, 0x55, 0x5d, 0xbe, 0x4e, 0x26, 0x8d, 0xbe,
    0xab, 0xfc, 0x40, 0xbf, 0x22, 0x6d, 0x85, 0xbd, 0xc1, 0x80, 0x9a, 0xbc,
    0x60, 0xc5, 0x08, 0xbc, 0x62, 0x27, 0x52, 0x3e, 0x3e, 0xdd, 0x1b, 0x3e,
    0x06, 0x94, 0xa7, 0xbe, 0xa5, 0xd1, 0xd0, 0xbb, 0xf5, 0xfb, 0x00, 0x3c,
    0x73, 0x99, 0xdc, 0x3d, 0x78, 0x72, 0xc2, 0x3e, 0xcf, 0x36, 0x06, 0x3a,
    0x39, 0x10, 0xa2, 0x3e, 0xbc, 0x73, 0xcb, 0x3c, 0x9f, 0x99, 0x29, 0xbd,
    0x6f, 0xf7, 0x5f, 0xbe, 0x54, 0x04, 0x63, 0xbe, 0xef, 0xf7, 0xfa, 0x3d,
    0xef, 0x8b, 0x8d, 0x3c, 0x2e, 0x25, 0x07, 0x3f, 0x5b, 0x77, 0x99, 0xbe,
    0x30, 0x80, 0x59, 0x3e, 0xba, 0xc6, 0x86, 0xbe, 0xc0, 0xad, 0xb6, 0xbd,
    0x16, 0x0c, 0x46, 0xbd, 0xe7, 0xa1, 0x88, 0xbe, 0xbb, 0x77, 0x02, 0x3f,
    0xcd, 0xbb, 0x14, 0x3e, 0xc5, 0x42, 0xec, 0x3e, 0x18, 0x81, 0x77, 0xbc,
    0x08, 0x73, 0xe5, 0x3d, 0x91, 0x2d, 0x17, 0x3d, 0x53, 0x32, 0x31, 0xbd,
    0xc4, 0x4c, 0xc7, 0x3e, 0x71, 0x47, 0x09, 0xbd, 0x66, 0x13, 0xbb, 0x3e,
    0x4d, 0x9f, 0x3f, 0xbe, 0x8a, 0x72, 0xe1, 0xbc, 0xf0, 0xaa, 0xa5, 0xbe,
    0x0c, 0xb7, 0xf7, 0xbc, 0x50, 0x7a, 0x6e, 0xbd, 0x89, 0xac, 0x1c, 0x3e,
    0xf1, 0xa3, 0x8c, 0x3e, 0xdc, 0x21, 0x47, 0x3d, 0x24, 0x83, 0xea, 0x3e,
    0x06, 0xc8, 0xf2, 0x3c, 0xe1, 0x72, 0x95, 0x3e, 0xd7, 0x0c, 0xe4, 0xbb,
    0xc5, 0x88, 0x01, 0xbe, 0xb8, 0x33, 0xc4, 0x3e, 0x83, 0x39, 0x27, 0x3c,
    0x54, 0x80, 0x34, 0x3e, 0x38, 0xe4, 0x86, 0x3d, 0x01, 0x4e, 0x98, 0xbe,
    0xb5, 0xd5, 0xfb, 0xbe, 0x2a, 0x74, 0xf3, 0xbc, 0x7a, 0x27, 0x08, 0xbc,
    0xdc, 0x43, 0x4c, 0xbe, 0xf7, 0xe1, 0xd4, 0x3e, 0xaa, 0x4b, 0xa6, 0xbe,
    0xa5, 0x27, 0x73, 0x3e, 0x6e, 0xe9, 0x2e, 0xbe, 0xd3, 0x85, 0xa1, 0xbe,
    0x19, 0x9d, 0xb4, 0xbe, 0x3a, 0x08, 0xd2, 0xbd, 0x30, 0x01, 0x21, 0x3e,
    0x6f, 0x1f, 0xa3, 0xbd, 0x63, 0xd8, 0xc8, 0x3e, 0xe8, 0x52, 0x1d, 0x3d,
    0x5c, 0x2c, 0x59, 0x3c, 0xbe, 0xc9, 0xf0, 0xbe, 0x41, 0x7f, 0x5e, 0x3c,
    0x83, 0xb3, 0x88, 0x3c, 0xb5, 0x6d, 0xaf, 0xbe, 0x81, 0xc2, 0xc8, 0x3e,
    0x04, 0x07, 0x3f, 0xbe, 0x73, 0x50, 0x05, 0x3e, 0x94, 0xc2, 0x00, 0x3e,
    0x6e, 0xe6, 0x84, 0xbe, 0x0b, 0x37, 0x35, 0xbe, 0x11, 0xb6, 0x82, 0xbd,
    0xb9, 0x1b, 0x0a, 0x3d, 0x9f, 0x5b, 0x19, 0xbe, 0x8f, 0x34, 0x7f, 0x3e,
    0xf8, 0x7b, 0x52, 0x3d, 0x81, 0x37, 0x93, 0xbe, 0x9a, 0xa4, 0x42, 0xbe,
    0x02, 0x0b, 0x50, 0x3c, 0x5d, 0x9f, 0x5e, 0xbd, 0xdc, 0x09, 0xc8, 0x3c,
    0xc2, 0x80, 0x3c, 0x3e, 0xb6, 0xe6, 0x2b, 0x3c, 0xc1, 0x4b, 0x88, 0x3e,
    0x44, 0xd6, 0xd0, 0x3c, 0x15, 0xd1, 0x95, 0xbe, 0x7b, 0xc3, 0x1a, 0xbc,
    0x50, 0xd8, 0xba, 0xbd, 0xe7, 0xc0, 0x21, 0xbb, 0xc8, 0xb7, 0xe3, 0xbd,
    0xe7, 0xca, 0x02, 0xbe, 0xfa, 0x41, 0x2b, 0xbe, 0xed, 0xba, 0x01, 0x3d,
    0x8c, 0xcf, 0x27, 0xbe, 0xd3, 0xcc, 0xca, 0xbd, 0x5a, 0xab, 0x6b, 0xbe,
    0xc5, 0x51, 0xe8, 0x3d, 0x4e, 0xf6, 0x1e, 0xbe, 0x9f, 0xc8, 0x2b, 0xbe,
    0x73, 0x4b, 0x81, 0x3c, 0xe6, 0x63, 0x59, 0xbe, 0x69, 0x6c, 0xcc, 0xbd,
    0x28, 0xaa, 0x37, 0xbd, 0xb2, 0x3a, 0x47, 0x3e, 0x3a, 0x58, 0xd6, 0x3d,
    0x10, 0xde, 0xd5, 0xbd, 0xda, 0x78, 0xf3, 0x3d, 0xef, 0xbd, 0xde, 0xbc,
    0x74, 0xae, 0xaf, 0xbd, 0x8a, 0x11, 0xaf, 0x3d, 0xac, 0x79, 0x74, 0xbe,
    0xf2, 0x9a, 0xcb, 0xbd, 0x8a, 0xd6, 0xdc, 0xbd, 0xda, 0x35, 0xe7, 0xbd,
    0x80, 0xae, 0xfe, 0xbd, 0xbe, 0x74, 0x49, 0xbb, 0x9f, 0x47, 0x45, 0xbe,
    0x2e, 0x9a, 0xb5, 0x3d, 0x82, 0x73, 0x0f, 0x3e, 0x6e, 0xa4, 0x64, 0xbc,
    0x60, 0xe4, 0x78, 0xbd, 0xfb, 0x39, 0x1c, 0xbe, 0x4d, 0xb3, 0x95, 0x3c,
    0xf8, 0x3e, 0xe1, 0xbd, 0x82, 0x52, 0x34, 0xbe, 0xfc, 0xe8, 0x42, 0xbe,
    0xd5, 0xe0, 0xe4, 0x3c, 0x57, 0x47, 0x86, 0xbe, 0x06, 0xee, 0xb9, 0x3d,
    0x93, 0xda, 0x53, 0xbe, 0xd8, 0xaf, 0xeb, 0x3d, 0x58, 0x37, 0xa5, 0xbb,
    0x24, 0x1a, 0x28, 0xbe, 0xb8, 0xee, 0x08, 0xbe, 0xd7, 0x5f, 0x5f, 0x3d,
    0x55, 0x91, 0x23, 0xbe, 0xce, 0xeb, 0x65, 0xbe, 0x19, 0xc2, 0x1a, 0xbe,
    0x56, 0xa0, 0x1c, 0xbe, 0xeb, 0xc5, 0x44, 0xbe, 0x46, 0x30, 0x95, 0x3d,
    0x85, 0xda, 0x33, 0x3d, 0xf0, 0xd3, 0xb8, 0xbd, 0x0f, 0x14, 0x61, 0xbe,
    0x58, 0xe6, 0x8b, 0xbd, 0x64, 0xdd, 0xd6, 0xbd, 0x38, 0x47, 0x9c, 0xbd,
    0x20, 0x65, 0xb6, 0xbd, 0x6f, 0xb7, 0xc6, 0x3d, 0xde, 0xad, 0x27, 0xbd,
    0xe0, 0x05, 0x5d, 0xbe, 0x63, 0xc3, 0xfd, 0xbc, 0x52, 0x22, 0x93, 0x3d,
    0x23, 0xd5, 0xdc, 0xbd, 0xeb, 0xea, 0xbb, 0x3c, 0x56, 0x9f, 0x48, 0x3c,
    0x74, 0x17, 0x7f, 0xbc, 0x8d, 0xf4, 0xb7, 0xbd, 0x7f, 0xe6, 0x25, 0xbe,
    0x92, 0x2d, 0x93, 0x3d, 0xce, 0xf4, 0x36, 0xbe, 0x10, 0xbe, 0x8c, 0x3c,
    0x1f, 0xf9, 0xb0, 0x3d, 0x1d, 0xdb, 0x2e, 0xbe, 0x30, 0xfd, 0x8e, 0x3c,
    0xe8, 0xab, 0xc5, 0xbd, 0x9d, 0x38, 0x84, 0x3d, 0x96, 0xb7, 0x85, 0x3d,
    0x09, 0x82, 0xa0, 0xbd, 0xfd, 0xf0, 0x02, 0xbe, 0x66, 0xf7, 0x02, 0x3e,
    0x69, 0x3c, 0x8a, 0x3b, 0x08, 0x43, 0xf1, 0x3d, 0xaa, 0x9e, 0xb1, 0xbd,
    0x71, 0xfc, 0x80, 0xbe, 0x13, 0xc7, 0x1e, 0x3c, 0xfb, 0xaa, 0x1d, 0x3e,
    0x5d, 0x95, 0x0d, 0x3e, 0x06, 0x25, 0xd5, 0x3d, 0xa1, 0xd5, 0x02, 0xbe,
    0xca, 0x37, 0x20, 0xbd, 0x59, 0x24, 0xa8, 0x3b, 0x75, 0x79, 0x19, 0xbe,
    0x4a, 0x76, 0x2a, 0xbe, 0x6b, 0x15, 0x87, 0xbe, 0x38, 0x73, 0x2b, 0xbe,
    0xc4, 0x8c, 0x0f, 0xbe, 0xf8, 0x7d, 0x8b, 0x3d, 0x66, 0x5e, 0x73, 0xbc,
    0x03, 0x71, 0x24, 0x3d, 0xd1, 0xa9, 0x75, 0xbe, 0xb7, 0x0e, 0xb4, 0xbd,
    0x2e, 0xdf, 0x4c, 0x3d, 0x29, 0x5a, 0x07, 0x3a, 0x59, 0x8b, 0x67, 0xbb,
    0xcb, 0x3b, 0x82, 0xbd, 0xd5, 0x53, 0x19, 0xbe, 0x91, 0xef, 0xa7, 0x3c,
    0x08, 0x97, 0x36, 0xbe, 0xb6, 0x9f, 0xf5, 0xbc, 0xd7, 0x88, 0x02, 0x3e,
    0x8c, 0x87, 0x53, 0xbe, 0x39, 0x79, 0x19, 0xbe, 0xb0, 0x26, 0x2d, 0x3e,
    0xf3, 0x09, 0x0f, 0x3e, 0x75, 0x12, 0x2e, 0xbc, 0x68, 0x04, 0x6e, 0xbe,
    0x05, 0xe5, 0x7b, 0xbe, 0xe1, 0xd9, 0x53, 0xbe, 0xc2, 0x08, 0x59, 0x3f,
    0x3e, 0x51, 0x68, 0xbd, 0xb2, 0x79, 0xe1, 0x3b, 0x85, 0x77, 0x5b, 0x3d,
    0x92, 0xe4, 0x32, 0xbe, 0x38, 0x7d, 0x00, 0xbd, 0xcf, 0x53, 0xdf, 0x3e,
    0x18, 0xf0, 0xe5, 0xbd, 0xfa, 0xed, 0xed, 0x3e, 0xf1, 0xa2, 0x3d, 0xbd,
    0x17, 0x33, 0x4b, 0xbe, 0xe2, 0xd9, 0x89, 0xbd, 0x6a, 0xc2, 0x41, 0xbb,
    0x07, 0x21, 0xa4, 0xbe, 0x5e, 0xac, 0xe3, 0xbd, 0xb5, 0x58, 0x3b, 0x3c,
    0x04, 0x62, 0xef, 0x3e, 0x79, 0xf5, 0x24, 0xbc, 0x77, 0xae, 0x00, 0x3f,
    0x8c, 0xfb, 0x6b, 0x3d, 0x4b, 0xd1, 0x84, 0xbe, 0x41, 0x67, 0x69, 0xbd,
    0x1e, 0xde, 0xb2, 0x3e, 0x5a, 0x47, 0x4a, 0xbd, 0x32, 0xb0, 0xac, 0x3e,
    0x8f, 0x56, 0x4b, 0xbe, 0xdd, 0x04, 0x5c, 0xbe, 0x31, 0x63, 0x29, 0xbe,
    0x5b, 0xee, 0x83, 0x3d, 0xc4, 0xf0, 0x8a, 0xbe, 0x26, 0xed, 0xab, 0xbd,
    0xd4, 0xcd, 0x38, 0xbd, 0x0a, 0x33, 0x4b, 0x3f, 0x68, 0xd9, 0xa3, 0xbc,
    0x54, 0xe8, 0x4d, 0x3f, 0xb6, 0x34, 0x0a, 0xbd, 0x8a, 0xf0, 0x30, 0x3e,
    0x0c, 0x77, 0x82, 0xbe, 0xd8, 0x1c, 0xf4, 0x3e, 0x24, 0xe1, 0x68, 0x3e,
    0x7f, 0x19, 0x8a, 0x3e, 0xe2, 0x49, 0x67, 0x3d, 0x3c, 0x43, 0xcd, 0x3a,
    0xdf, 0xe4, 0x80, 0xbe, 0xae, 0x9e, 0xea, 0x3d, 0x32, 0x2e, 0x8c, 0xbe,
    0x83, 0x91, 0x80, 0xbe, 0x2b, 0x6e, 0x27, 0xbd, 0x45, 0x11, 0xef, 0x3f,
    0x0a, 0x2d, 0xcf, 0xbd, 0x03, 0xf9, 0x1d, 0x3f, 0x18, 0x58, 0xbf, 0x3d,
    0x26, 0x2b, 0x03, 0xbb, 0xc0, 0x49, 0xe9, 0xbb, 0x6c, 0x5e, 0xbc, 0x3d,
    0xad, 0x14, 0x87, 0xbd, 0xc1, 0xcd, 0x97, 0xbe, 0x98, 0x95, 0x5f, 0xbe,
    0x43, 0xbf, 0xc9, 0xbd, 0xf9, 0x7a, 0x8b, 0xbe, 0x7e, 0x7b, 0x94, 0xbd,
    0xe0, 0x81, 0x33, 0xbe, 0x09, 0xd5, 0x2d, 0xbe, 0xf2, 0xab, 0xd6, 0x3c,
    0xb4, 0x38, 0xa1, 0x3f, 0xd2, 0x77, 0x1d, 0x3d, 0x31, 0xab, 0xa1, 0x3e,
    0x06, 0x0c, 0xe8, 0xbd, 0xc5, 0x75, 0x41, 0x3d, 0x02, 0x76, 0x31, 0xbe,
    0xe6, 0x54, 0xf8, 0x3d, 0x25, 0x0f, 0x56, 0xbe, 0x21, 0x59, 0xab, 0x3e,
    0x44, 0x19, 0x1c, 0xbe, 0xdb, 0x7f, 0xb7, 0xbc, 0x50, 0x5e, 0x3e, 0x3c,
    0xe0, 0x35, 0x3e, 0xbe, 0x2e, 0x70, 0xac, 0xbe, 0x1e, 0xca, 0x04, 0xbd,
    0x64, 0xda, 0x4c, 0xbc, 0x25, 0xe8, 0x27, 0x3f, 0x76, 0xc1, 0x52, 0xbe,
    0x71, 0x7a, 0x56, 0xbd, 0xfd, 0x58, 0xd1, 0xbd, 0x69, 0x4c, 0x17, 0x3d,
    0xf7, 0x68, 0x02, 0xbc, 0x68, 0x88, 0x9f, 0x3e, 0x3f, 0xd3, 0x1e, 0xbe,
    0xef, 0x9c, 0x01, 0x3e, 0x04, 0x6e, 0xd7, 0x3c, 0x84, 0xa8, 0x06, 0xbd,
    0x03, 0x35, 0xae, 0xbd, 0x7f, 0xf1, 0xe3, 0xbd, 0x57, 0x71, 0xd6, 0xbd,
    0x48, 0xa2, 0x32, 0xbe, 0x99, 0x78, 0x8a, 0xbb, 0xd6, 0xf6, 0xbe, 0x3c,
    0x64, 0x94, 0x83, 0xbe, 0xc6, 0x51, 0x56, 0x3e, 0x82, 0x46, 0x2c, 0x3d,
    0x29, 0xd5, 0x3c, 0xbd, 0x80, 0x86, 0x21, 0xbd, 0x37, 0x77, 0x7d, 0x3e,
    0xcc, 0x4b, 0x13, 0x3e, 0xb5, 0xda, 0xcf, 0x3d, 0x0f, 0x64, 0x11, 0x3e,
    0xe6, 0x38, 0xb2, 0xbd, 0x61, 0xe7, 0x08, 0x3d, 0xfd, 0x14, 0x55, 0x3d,
    0x79, 0xa9, 0xef, 0xbc, 0xf9, 0x38, 0x04, 0xbe, 0x9b, 0x8f, 0x85, 0x3e,
    0xbf, 0xe2, 0x5e, 0xbe, 0x35, 0xa8, 0x81, 0x3e, 0x47, 0x69, 0x0a, 0x3e,
    0x4c, 0xab, 0x5d, 0xbe, 0x07, 0x57, 0x2c, 0x3e, 0x71, 0x24, 0x06, 0x3e,
    0x91, 0xdc, 0x78, 0xbd, 0x5d, 0x99, 0x66, 0x3e, 0x22, 0xb7, 0x43, 0x3d,
    0x56, 0x2a, 0x1c, 0x3d, 0x36, 0xb2, 0x37, 0xbe, 0x9f, 0x50, 0xad, 0x3e,
    0x56, 0xe1, 0x8e, 0xbd, 0xa4, 0x0c, 0xdb, 0xbd, 0xa1, 0xbc, 0x17, 0xbd,
    0x85, 0x89, 0xb0, 0x3d, 0xb4, 0x46, 0x22, 0xbe, 0x6c, 0x86, 0x72, 0xbe,
    0x9d, 0xd0, 0x2e, 0x3e, 0x69, 0xbb, 0x24, 0x3e, 0x44, 0xae, 0x72, 0x3e,
    0x9e, 0x12, 0x5e, 0xbe, 0xbb, 0xaa, 0x91, 0x3d, 0xba, 0x3a, 0x41, 0xbe,
    0x15, 0xf0, 0x59, 0xbd, 0x8e, 0x42, 0x34, 0xbd, 0xc3, 0xaa, 0x8a, 0xbc,
    0x29, 0x9b, 0x2a, 0x3d, 0xec, 0x39, 0x0c, 0xbe, 0x6a, 0x8a, 0xce, 0xbd,
    0x0b, 0x36, 0xdb, 0x3d, 0x55, 0x2d, 0x5e, 0xbe, 0x16, 0x1a, 0x45, 0x3e,
    0x69, 0x86, 0xca, 0xbe, 0xdf, 0x6d, 0x8b, 0xbe, 0xf9, 0x8e, 0xa3, 0x3b,
    0xa5, 0x45, 0x42, 0x3e, 0xcd, 0xc0, 0x10, 0xbe, 0x34, 0xaa, 0x24, 0xbc,
    0x61, 0xc0, 0xac, 0xbe, 0xd0, 0x28, 0x33, 0xbe, 0xf1, 0x1d, 0xcf, 0xbe,
    0xb2, 0xd9, 0xe1, 0x3d, 0xd5, 0x20, 0x1a, 0xbd, 0x8a, 0x1d, 0xf1, 0xbd,
    0x0c, 0x53, 0x40, 0xbd, 0x29, 0x00, 0x24, 0x3c, 0x08, 0x31, 0x32, 0xbe,
    0x4f, 0x99, 0x09, 0x3d, 0x9f, 0x20, 0x96, 0xbe, 0xcd, 0x53, 0x66, 0xbe,
    0x1a, 0xa8, 0x72, 0x3c, 0x74, 0x49, 0x3e, 0x3d, 0x5a, 0xf9, 0x8d, 0xbd,
    0x24, 0x52, 0x84, 0x3a, 0x49, 0x0d, 0x44, 0xbe, 0xf6, 0x48, 0xd1, 0xbd,
    0xc0, 0xa0, 0x48, 0xbd, 0x4a, 0xd6, 0x0a, 0x3b, 0x34, 0x58, 0xcc, 0x3e,
    0x2a, 0x78, 0xde, 0x3d, 0x88, 0x7e, 0x30, 0xbd, 0xae, 0x46, 0x3a, 0xbd,
    0x77, 0x0b, 0x02, 0xbe, 0x35, 0x78, 0x0f, 0x3e, 0x87, 0xa7, 0x87, 0x3d,
    0x04, 0x13, 0x12, 0xbe, 0x6f, 0x7d, 0x9e, 0xbd, 0xab, 0x12, 0xfa, 0xbd,
    0xea, 0x24, 0x42, 0x3d, 0xf5, 0xd3, 0x6d, 0xbd, 0x6a, 0x44, 0xae, 0xbc,
    0xbf, 0xc4, 0x6b, 0xbe, 0xb6, 0x1b, 0x1f, 0xbe, 0xa8, 0xfa, 0x0c, 0x3d,
    0x56, 0xa6, 0xd8, 0x3d, 0x80, 0xe8, 0x94, 0xbd, 0xf0, 0xf4, 0x64, 0xbd,
    0x99, 0xcc, 0xf1, 0xbb, 0x23, 0x51, 0xa6, 0x3e, 0xb3, 0xfb, 0x6c, 0x3e,
    0x7b, 0x9a, 0xe5, 0x3a, 0x26, 0xe8, 0x65, 0x3e, 0xa4, 0x77, 0x53, 0x3e,
    0xd3, 0x64, 0xbd, 0x3d, 0xe3, 0xf0, 0xbc, 0xbc, 0xf7, 0xf1, 0x84, 0xbd,
    0xbd, 0x78, 0xb2, 0x3b, 0x6a, 0x1a, 0x3a, 0x3e, 0xc2, 0x6d, 0x0e, 0xbe,
    0xe8, 0x57, 0x06, 0xbc, 0x95, 0x3d, 0xa4, 0xbe, 0xbd, 0x92, 0x57, 0x3d,
    0x69, 0x9d, 0x91, 0xbd, 0x3a, 0xd5, 0x4f, 0x3d, 0xa8, 0x6d, 0x43, 0xbc,
    0x3a, 0x69, 0x28, 0xbe, 0x31, 0x0f, 0x00, 0x3b, 0xaf, 0x35, 0xf5, 0x3d,
    0x2b, 0x73, 0x47, 0xbe, 0x6a, 0x30, 0x68, 0x3d, 0x57, 0x84, 0xdc, 0xbd,
    0x7a, 0x80, 0x9b, 0xbe, 0x4a, 0xd7, 0x86, 0x3d, 0x18, 0xb6, 0xf3, 0xbe,
    0xb1, 0xac, 0xe9, 0x3e, 0xc1, 0xa4, 0xba, 0x3e, 0xf7, 0xba, 0xe4, 0xbd,
    0x4e, 0x00, 0x8f, 0xbe, 0xc7, 0xf9, 0x27, 0xbd, 0xa0, 0x7d, 0xd0, 0x3c,
    0x89, 0xaf, 0x65, 0xbe, 0x9b, 0xa3, 0xf9, 0x3e, 0x44, 0x2a, 0x26, 0xbe,
    0xd8, 0xce, 0xb7, 0xbd, 0xd2, 0xac, 0xed, 0xbc, 0xd4, 0x9c, 0x8d, 0xbe,
    0x79, 0x42, 0x98, 0xbe, 0x2d, 0x58, 0x92, 0xbe, 0xf9, 0x12, 0xb0, 0xbc,
    0xb3, 0xc6, 0xff, 0xb6, 0x66, 0xc9, 0x6c, 0x3e, 0xd7, 0x8b, 0x80, 0x3a,
    0xc7, 0x33, 0x4e, 0x3e, 0xa4, 0xd5, 0x4e, 0xbe, 0xbb, 0x28, 0xf4, 0xbb,
    0xa9, 0x3f, 0x23, 0x3c, 0x46, 0xd9, 0x17, 0x3d, 0x09, 0xb7, 0xa4, 0x3e,
    0x87, 0x9f, 0xd5, 0x3d, 0x67, 0x1f, 0xc0, 0x3d, 0xf5, 0x1b, 0x1e, 0x3e,
    0x21, 0xb4, 0x20, 0xbe, 0xa7, 0xe3, 0x6d, 0x3d, 0x32, 0x79, 0x77, 0xbd,
    0xe2, 0x3c, 0x63, 0x3e, 0xdf, 0x06, 0x3d, 0x3d, 0x6f, 0x45, 0x5d, 0x3e,
    0x7a, 0xc1, 0x25, 0x3e, 0xf6, 0xdb, 0xb3, 0x3e, 0x52, 0x63, 0x8b, 0xbd,
    0x6b, 0xe7, 0x8e, 0x3c, 0xb2, 0xa2, 0xc4, 0xbc, 0xb6, 0xa9, 0x40, 0x3d,
    0x50, 0xc5, 0xf7, 0x3e, 0x7b, 0x21, 0xac, 0x3d, 0x30, 0xcd, 0xdd, 0x3e,
    0xbf, 0xcc, 0xea, 0x3d, 0xfd, 0x92, 0x51, 0x3e, 0x2d, 0x60, 0x8f, 0x3c,
    0x35, 0xeb, 0x39, 0xbe, 0x90, 0x1b, 0x98, 0x3e, 0x8f, 0x23, 0xf3, 0x3d,
    0x65, 0x64, 0xd8, 0x3e, 0x0e, 0x96, 0x04, 0xbc, 0x45, 0x8d, 0x0b, 0x3d,
    0x60, 0xba, 0x82, 0xbe, 0x9e, 0x04, 0x8e, 0xb8, 0x1a, 0xec, 0x8f, 0xbd,
    0xe2, 0xcc, 0x86, 0x3d, 0xb2, 0x9d, 0x87, 0x3e, 0xd3, 0xb5, 0x1c, 0xbe,
    0x82, 0x43, 0xc3, 0x3e, 0x50, 0x44, 0xb4, 0xbd, 0x5a, 0x14, 0x8d, 0x3d,
    0x12, 0x25, 0xdc, 0xbb, 0x8d, 0x97, 0xb0, 0xbe, 0xda, 0x21, 0x69, 0x3e,
    0x6d, 0x70, 0x0e, 0x3e, 0x24, 0x18, 0x85, 0x3e, 0xcd, 0xb3, 0x30, 0xbd,
    0xa0, 0xc6, 0x28, 0xbf, 0x97, 0xf7, 0xd5, 0xbe, 0xab, 0xbc, 0x38, 0xbd,
    0xb6, 0x89, 0x10, 0xbd, 0x4c, 0x3d, 0x9e, 0xbe, 0xaa, 0xb8, 0xe6, 0x3e,
    0xa2, 0x68, 0x7a, 0xbe, 0xad, 0xb8, 0x8d, 0x3e, 0x91, 0xca, 0x50, 0xbe,
    0xf2, 0xdc, 0x8e, 0xbe, 0xbf, 0x14, 0x95, 0xbe, 0xf5, 0x8e, 0x3f, 0xbe,
    0x94, 0x93, 0x28, 0x3e, 0x3e, 0x29, 0x53, 0xbc, 0x49, 0xec, 0xea, 0x3e,
    0xd7, 0x6e, 0x04, 0x3e, 0xca, 0x03, 0x90, 0xbe, 0x6c, 0x12, 0x96, 0xbe,
    0xb2, 0xac, 0xba, 0xbc, 0xe5, 0xb8, 0x15, 0x3d, 0x0b, 0x84, 0xf5, 0xbe,
    0x4b, 0x54, 0x09, 0x3f, 0xf8, 0xc3, 0x4f, 0xbe, 0x14, 0x38, 0x51, 0x3e,
    0x43, 0x02, 0x05, 0xbe, 0x70, 0x99, 0xc6, 0xbe, 0x3f, 0x77, 0xb7, 0xbe,
    0xe9, 0x04, 0x37, 0xbe, 0xa0, 0xdc, 0x48, 0x3d, 0xd5, 0xf1, 0x1a, 0xbe,
    0x29, 0xa1, 0x8f, 0x3e, 0x19, 0xc4, 0x83, 0x3d, 0xba, 0xd2, 0x81, 0xbe,
    0xa5, 0xe9, 0x3d, 0xbe, 0xd2, 0xb6, 0x85, 0x3d, 0xb4, 0xa8, 0x9a, 0xbc,
    0x6e, 0x04, 0xb0, 0x39, 0xd0, 0x6b, 0x51, 0x3d, 0xec, 0x2a, 0x80, 0xbd,
    0x88, 0x06, 0x7a, 0x3e, 0x0e, 0x2e, 0xfb, 0x3d, 0x16, 0x0f, 0xd6, 0xbe,
    0x4f, 0x40, 0x8f, 0x3d, 0xc5, 0x47, 0x2a, 0xbe, 0x7b, 0x79, 0x47, 0xbd,
    0xb4, 0xe2, 0x6f, 0xbd, 0x87, 0x99, 0xaf, 0x3d, 0x13, 0x0c, 0xab, 0x3e,
    0xdf, 0x3b, 0x06, 0x3e, 0x50, 0x4c, 0x65, 0xbe, 0x31, 0xe5, 0xe2, 0x3c,
    0xd8, 0xee, 0xcb, 0x3c, 0x19, 0xbe, 0xb9, 0xbe, 0x25, 0x44, 0x17, 0x3f,
    0x02, 0x6e, 0x04, 0xbe, 0x43, 0x5c, 0x14, 0xbe, 0xd8, 0x10, 0x44, 0xbe,
    0xf8, 0x43, 0x84, 0xbe, 0x49, 0xc1, 0x2b, 0xbe, 0x0e, 0x6b, 0x90, 0x3c,
    0x24, 0x07, 0x29, 0xbe, 0x71, 0x13, 0x8b, 0x3d, 0x0b, 0xfd, 0x80, 0xb9,
    0x51, 0xd7, 0xef, 0x3d, 0x2e, 0x4f, 0xc3, 0x3e, 0x14, 0x67, 0x96, 0xba,
    0x2a, 0x66, 0xe9, 0x3c, 0x6e, 0x26, 0xf6, 0x3b, 0x8a, 0x34, 0x7d, 0xbd,
    0xaa, 0xa4, 0xa9, 0x3e, 0xf8, 0x73, 0x1f, 0x3e, 0xe0, 0x0f, 0x46, 0x3e,
    0x17, 0x8c, 0xdf, 0xbd, 0xb3, 0xe3, 0xff, 0xbd, 0x3e, 0x57, 0x2d, 0xbd,
    0xef, 0x1a, 0x34, 0x3c, 0x5b, 0x22, 0x3d, 0x3e, 0x11, 0xb7, 0x3f, 0x3d,
    0xcb, 0x3f, 0xc7, 0x3d, 0xe3, 0x2b, 0x63, 0xbe, 0x79, 0x54, 0x68, 0x3e,
    0x1b, 0x98, 0xaf, 0x3d, 0x20, 0x19, 0x5e, 0x3c, 0xb9, 0xaa, 0xf2, 0x3c,
    0xc4, 0x75, 0x81, 0xbb, 0xa6, 0x70, 0x85, 0x3e, 0x39, 0xaf, 0xd7, 0xbc,
    0x4a, 0x13, 0x18, 0x3f, 0x12, 0x0e, 0xf1, 0xbd, 0x90, 0x7a, 0x6d, 0x3d,
    0x16, 0x8c, 0xa4, 0x3e, 0x35, 0x32, 0x07, 0x3d, 0x92, 0x38, 0x16, 0x3f,
    0x63, 0x4a, 0x4a, 0x3d, 0xc6, 0x5f, 0x27, 0x3e, 0x09, 0x42, 0xa7, 0xbc,
    0x7a, 0x23, 0x0a, 0xbd, 0x4f, 0xb5, 0x16, 0x3e, 0xa1, 0x7b, 0xba, 0x3d,
    0xba, 0x79, 0x0b, 0x3d, 0xa0, 0x60, 0x44, 0x3e, 0x73, 0xfa, 0xeb, 0x3e,
    0x24, 0xa3, 0x8b, 0x3d, 0xe4, 0xae, 0xf5, 0x3e, 0x56, 0xd8, 0x35, 0xbe,
    0x70, 0x2a, 0x3e, 0x3e, 0x23, 0x6e, 0x6d, 0x3e, 0x5b, 0x52, 0x98, 0xbd,
    0x4e, 0x70, 0x9f, 0x3e, 0xc1, 0x8c, 0xde, 0x3d, 0xfe, 0x0f, 0xaa, 0x3e,
    0x10, 0x4e, 0x0e, 0x3e, 0xd2, 0x1c, 0x13, 0xbe, 0xd6, 0x91, 0x02, 0xbe,
    0x43, 0x97, 0x15, 0x3d, 0xf1, 0x4e, 0x42, 0x3d, 0x61, 0x51, 0xd9, 0xbd,
    0x25, 0xbe, 0x1b, 0x3f, 0x5d, 0xba, 0xf7, 0xba, 0x4b, 0x48, 0x01, 0x3e,
    0x27, 0xd3, 0xff, 0x3d, 0x67, 0xf8, 0x51, 0xbe, 0xaa, 0x2a, 0x83, 0xba,
    0x03, 0x26, 0x9c, 0xbb, 0x36, 0x05, 0x13, 0x3d, 0x3f, 0xc8, 0x74, 0x3d,
    0x24, 0x13, 0xa4, 0x3e, 0x0f, 0x6c, 0x4e, 0x3e, 0x8a, 0x58, 0x3c, 0xbe,
    0xb2, 0xa5, 0x2a, 0xbe, 0x31, 0x9a, 0x37, 0x3d, 0x65, 0x99, 0xb4, 0x3c,
    0x57, 0x84, 0x21, 0xbe, 0xfe, 0xea, 0x45, 0x3f, 0x84, 0xba, 0x1f, 0xbd,
    0x51, 0x44, 0x64, 0xbc, 0x6e, 0x94, 0xc2, 0xbd, 0x76, 0x59, 0x4c, 0xbe,
    0x79, 0x11, 0x45, 0x3b, 0x2f, 0x03, 0xf7, 0xbb, 0x87, 0xc4, 0xf0, 0xbc,
    0xdb, 0x69, 0x8e, 0x3d, 0xac, 0x42, 0x02, 0xbe, 0x65, 0xc7, 0x33, 0x3e,
    0xd1, 0x03, 0x17, 0xbe, 0x27, 0xda, 0xc8, 0xbb, 0x39, 0x71, 0x0f, 0xbc,
    0x7e, 0x76, 0x36, 0xbd, 0xde, 0xf4, 0x4f, 0xbc, 0x4b, 0x5c, 0x88, 0x3c,
    0x55, 0xa6, 0x91, 0xbd, 0x20, 0xca, 0x1c, 0x3d, 0x81, 0xb2, 0xd2, 0x3d,
    0xb5, 0x7f, 0xd9, 0xbd, 0x00, 0x7c, 0x00, 0xbb, 0x86, 0x6b, 0xd1, 0xbb,
    0x53, 0x12, 0x59, 0xbe, 0x61, 0x78, 0x83, 0x3e, 0xad, 0x5b, 0xbb, 0x3d,
    0x9f, 0x8e, 0x2a, 0xbe, 0x1f, 0x27, 0xc1, 0x3c, 0x06, 0xa3, 0x71, 0x3c,
    0x5b, 0xb1, 0x49, 0xbe, 0x19, 0xe3, 0xde, 0xbe, 0x20, 0x68, 0x9b, 0x3d,
    0x30, 0xef, 0x01, 0xbe, 0xa6, 0x4a, 0x1e, 0xbe, 0x26, 0x02, 0xae, 0xbe,
    0x13, 0xa1, 0x47, 0xbc, 0x04, 0xa0, 0xf5, 0xbc, 0x75, 0xde, 0xa9, 0x3d,
    0xd2, 0x83, 0x23, 0xbe, 0x98, 0xff, 0x18, 0xbe, 0x0d, 0x92, 0xbf, 0x3d,
    0x66, 0x0b, 0x41, 0xbe, 0x42, 0x30, 0xf2, 0x3d, 0x1c, 0x16, 0xe1, 0x3c,
    0x90, 0x0b, 0xa9, 0xbd, 0xda, 0x36, 0x30, 0xbe, 0xee, 0x12, 0x03, 0xbf,
    0x1b, 0xb7, 0x8c, 0xbd, 0x62, 0x82, 0x3f, 0x3d, 0xde, 0xc9, 0x0e, 0xbe,
    0xe2, 0x3c, 0x13, 0xbe, 0x43, 0xc9, 0xf9, 0xbd, 0xef, 0xeb, 0x56, 0xbe,
    0x56, 0x20, 0xde, 0xbb, 0x0e, 0xc8, 0xc6, 0x3d, 0x7b, 0x1a, 0x87, 0xbd,
    0xe8, 0xd7, 0xa0, 0xbd, 0x1b, 0x43, 0x79, 0x3d, 0x2c, 0x6b, 0xc2, 0x3d,
    0x63, 0x7e, 0xb8, 0xbd, 0x57, 0xd4, 0xe1, 0xbd, 0xed, 0xe1, 0xa0, 0xbe,
    0xb3, 0xe5, 0xfd, 0xbe, 0x94, 0xa9, 0x3c, 0xbd, 0xe5, 0x74, 0xd2, 0xbd,
    0xa2, 0x95, 0xd3, 0x3d, 0xfa, 0x3f, 0xa4, 0xbd, 0x5c, 0xfb, 0x04, 0xbe,
    0x67, 0x5b, 0x9b, 0xbd, 0x46, 0x23, 0xd4, 0x3d, 0x56, 0xd5, 0xb9, 0xbd,
    0x19, 0x89, 0x02, 0xbe, 0x9a, 0xbe, 0x75, 0x3e, 0xc8, 0x18, 0xbf, 0x3d,
    0xf5, 0x67, 0xfa, 0xbc, 0x50, 0x9d, 0x13, 0x3e, 0xdc, 0x5d, 0x41, 0xbe,
    0xed, 0x4a, 0x1b, 0xbe, 0xf7, 0x59, 0xd4, 0xbe, 0x72, 0xf8, 0x07, 0xbe,
    0x66, 0x5f, 0x9e, 0x3d, 0xf2, 0x3f, 0x4e, 0xbe, 0x5c, 0xff, 0x83, 0xbe,
    0xba, 0x63, 0x83, 0x3d, 0x84, 0x8e, 0x4a, 0xbd, 0xd8, 0x01, 0x83, 0xbe,
    0x07, 0xaa, 0x28, 0xbd, 0x1f, 0x7e, 0x60, 0x3d, 0x75, 0x33, 0x22, 0x3d,
    0x05, 0xea, 0x7f, 0x3e, 0xcd, 0xe8, 0x89, 0x3d, 0x6b, 0x99, 0xd4, 0x3e,
    0x68, 0xbb, 0xb5, 0x3d, 0x7a, 0x9e, 0x9d, 0x3c, 0xf9, 0x9c, 0xb1, 0xbe,
    0x3d, 0x88, 0xbe, 0x3e, 0xf2, 0x0b, 0xf5, 0xbd, 0xd1, 0xf5, 0x83, 0x3e,
    0x6e, 0x21, 0x1a, 0x3e, 0x01, 0x7b, 0x4c, 0x3b, 0xe0, 0xf0, 0xaf, 0x3e,
    0x14, 0xbd, 0x50, 0x3e, 0xff, 0x3b, 0xa8, 0x3d, 0x99, 0xe4, 0x90, 0x3d,
    0x84, 0x3c, 0xe8, 0xbd, 0x30, 0xb7, 0xc6, 0x3d, 0xf9, 0x70, 0x5d, 0xbe,
    0x06, 0x21, 0x71, 0x3e, 0x4d, 0x7e, 0xfb, 0x3d, 0xa3, 0xd7, 0x53, 0xbc,
    0xc2, 0x9f, 0x1f, 0x3d, 0xe6, 0x6e, 0x88, 0x3e, 0xfb, 0xb3, 0x2a, 0xbc,
    0x52, 0x09, 0xff, 0x3c, 0x36, 0x07, 0x32, 0x3d, 0x4a, 0xfa, 0x3c, 0x3e,
    0xee, 0xf0, 0xc5, 0x3e, 0xe8, 0x4a, 0xbf, 0x3d, 0x4a, 0x49, 0xe4, 0x3d,
    0x7d, 0xae, 0x61, 0x3d, 0xbb, 0xcd, 0x46, 0x3e, 0x4b, 0x60, 0xfb, 0xbc,
    0x3c, 0x28, 0x17, 0xbd, 0xb1, 0xf2, 0x51, 0x3e, 0x4d, 0x59, 0x4b, 0xbe,
    0xcb, 0x8a, 0x82, 0xbd, 0xb7, 0xad, 0x28, 0x3d, 0x06, 0xc8, 0x06, 0x3d,
    0xeb, 0x02, 0x7c, 0x3d, 0x77, 0xd2, 0x96, 0xbd, 0x5b, 0x2a, 0x52, 0xbd,
    0x25, 0xea, 0x98, 0xbd, 0x74, 0x45, 0xc9, 0xbd, 0xea, 0xe6, 0x98, 0xbe,
    0x1e, 0x30, 0xa6, 0x3e, 0x31, 0x29, 0xbc, 0xbe, 0xec, 0x48, 0x93, 0xbd,
    0x36, 0xea, 0x35, 0xbe, 0x2c, 0xa1, 0x2f, 0xbe, 0x7f, 0x1a, 0xe0, 0xbd,
    0x86, 0xdc, 0xb4, 0xbd, 0xb3, 0x2b, 0x87, 0xbe, 0x05, 0xad, 0x7f, 0xbd,
    0x80, 0x4e, 0xe3, 0xbd, 0x11, 0x94, 0x09, 0xbe, 0xa2, 0xac, 0x30, 0xbe,
    0xfb, 0x42, 0x80, 0xbe, 0x25, 0x04, 0x88, 0x3d, 0xf3, 0xc0, 0x5a, 0xbe,
    0x5d, 0xd5, 0x1b, 0xbe, 0xae, 0x76, 0x47, 0xbe, 0x80, 0xe6, 0xc6, 0xbd,
    0x55, 0x25, 0xaf, 0x3d, 0x2f, 0x42, 0x4c, 0xbd, 0x64, 0xa5, 0x5b, 0xbe,
    0xe1, 0x8a, 0xc9, 0x3c, 0xc9, 0xee, 0xb0, 0x3c, 0x84, 0x79, 0x7b, 0xbe,
    0xac, 0x05, 0x10, 0xbe, 0x09, 0x59, 0x0a, 0x3d, 0x74, 0xb1, 0xb4, 0xbc,
    0xf4, 0x6a, 0xae, 0x3d, 0x71, 0x95, 0x78, 0xbe, 0x3e, 0x32, 0x15, 0xbe,
    0x6c, 0xad, 0xde, 0xbc, 0x48, 0xe4, 0xbd, 0x3b, 0xfc, 0xe1, 0x15, 0xbd,
    0x02, 0x5b, 0x9f, 0xbe, 0x2a, 0xb3, 0x56, 0x3d, 0x34, 0xd6, 0xa8, 0x3d,
    0x14, 0x48, 0xdb, 0xbd, 0x39, 0x9b, 0xb4, 0xbe, 0xfa, 0xd1, 0xa3, 0xbd,
    0xcf, 0xbd, 0x02, 0xbe, 0x9a, 0x28, 0x01, 0xbe, 0x4e, 0xb5, 0x16, 0xbe,
    0x35, 0x7b, 0x87, 0xbb, 0x0e, 0xb9, 0x22, 0xbe, 0xee, 0x8f, 0x81, 0xbd,
    0xaf, 0x50, 0x8e, 0x3d, 0x0a, 0x89, 0xd6, 0x3c, 0x2c, 0x30, 0x87, 0x3d,
    0xe6, 0x42, 0x6d, 0xbe, 0x69, 0x54, 0x3d, 0xbe, 0x33, 0x6b, 0xc7, 0x3c,
    0x04, 0x95, 0x18, 0x3d, 0xd9, 0xc9, 0x85, 0xbe, 0xef, 0x9b, 0x8d, 0xbe,
    0x21, 0x7e, 0xa7, 0xbd, 0x68, 0x13, 0x35, 0xbe, 0x25, 0x72, 0x2d, 0xbe,
    0x49, 0xf7, 0x57, 0xbd, 0x2c, 0x42, 0x80, 0x3d, 0xd6, 0x2c, 0x10, 0xbe,
    0x08, 0xd0, 0xba, 0xbe, 0x8a, 0xc1, 0xe1, 0xbd, 0xc6, 0x35, 0x82, 0x3d,
    0xd1, 0x3d, 0x0e, 0xbe, 0x0c, 0xc7, 0x11, 0xbe, 0xca, 0xf5, 0x63, 0xbe,
    0xac, 0x47, 0x18, 0x3e, 0x24, 0xa9, 0xae, 0x3b, 0x0a, 0x63, 0x79, 0xbe,
    0xcc, 0x54, 0xbe, 0xbd, 0xd1, 0xd7, 0x42, 0xbe, 0x47, 0x88, 0xa0, 0xbe,
    0xf6, 0xf0, 0x10, 0xbe, 0x16, 0x0d, 0x86, 0xbd, 0x19, 0x60, 0xa8, 0xbd,
    0xec, 0x32, 0xe7, 0xbd, 0xec, 0x16, 0x2b, 0xbe, 0x70, 0x87, 0x07, 0x3d,
    0xf8, 0x2a, 0xb6, 0xbd, 0x7b, 0xab, 0x6a, 0xbe, 0xcf, 0xfd, 0xe4, 0x3d,
    0xd7, 0x21, 0x65, 0xbe, 0x72, 0xc9, 0x9f, 0x3b, 0x01, 0x48, 0xde, 0xbd,
    0x06, 0x6f, 0xd0, 0xbd, 0x62, 0x50, 0x3e, 0x3e, 0xc8, 0xb4, 0xa0, 0xbc,
    0xe5, 0x9d, 0x2e, 0xbe, 0x20, 0x29, 0x67, 0xbe, 0x7b, 0x62, 0x6c, 0xbe,
    0x3f, 0xf6, 0xc0, 0xbd, 0x44, 0x1e, 0x82, 0xbe, 0xb7, 0xc7, 0x2b, 0x3c,
    0x31, 0xf5, 0x51, 0xbc, 0xef, 0xde, 0x50, 0x3e, 0xab, 0x22, 0x47, 0xbe,
    0x32, 0x34, 0x63, 0xbc, 0x3e, 0x24, 0x4f, 0x3c, 0xf0, 0xa8, 0xe0, 0x3d,
    0xe4, 0x0a, 0x84, 0xbc, 0xf3, 0x92, 0x3d, 0xbe, 0xff, 0xea, 0x0b, 0x3f,
    0x36, 0x48, 0xe4, 0x3d, 0xfd, 0x20, 0x9c, 0x3d, 0xf2, 0x9e, 0x56, 0x3d,
    0x7b, 0x99, 0x63, 0x3e, 0x48, 0x6b, 0x3b, 0xbe, 0x42, 0x8f, 0xae, 0x3e,
    0xa2, 0xb2, 0xae, 0x3e, 0xf7, 0xdd, 0x42, 0x3c, 0x2e, 0x56, 0xa8, 0x3d,
    0x58, 0x33, 0x81, 0x3e, 0x3d, 0x2b, 0x40, 0x3d, 0xc3, 0xa5, 0xc1, 0xbd,
    0x8d, 0xf4, 0xe0, 0x3d, 0x0f, 0x08, 0x12, 0xbe, 0xc3, 0x3f, 0x3a, 0xbd,
    0x86, 0x80, 0x84, 0x3d, 0x11, 0x8c, 0xff, 0xbd, 0xe6, 0x25, 0x9a, 0xbe,
    0x28, 0x90, 0x03, 0xbd, 0x9a, 0xfa, 0x66, 0x3d, 0x78, 0xd1, 0x6e, 0xbe,
    0xf9, 0xca, 0x1a, 0xbd, 0xc1, 0x66, 0x89, 0x3c, 0xbd, 0x62, 0xf5, 0xbd,
    0x32, 0xae, 0x37, 0xbe, 0xa1, 0x6c, 0xc0, 0x3d, 0x88, 0xe8, 0x29, 0xbe,
    0xdb, 0xe9, 0x0a, 0x3d, 0x6d, 0x10, 0x74, 0xbe, 0x19, 0x78, 0x93, 0x3d,
    0xa1, 0x17, 0x64, 0xbe, 0x21, 0xc7, 0x87, 0xbd, 0xb8, 0x58, 0x91, 0x3d,
    0x90, 0x45, 0x49, 0xbe, 0xd4, 0x22, 0xe4, 0xbd, 0xb9, 0xb0, 0x88, 0x3d,
    0x65, 0x22, 0x6f, 0xbe, 0x51, 0x0a, 0xd3, 0xbd, 0x35, 0x52, 0x36, 0xbd,
    0x8e, 0xf5, 0x2e, 0xbe, 0x35, 0xd9, 0x30, 0xbe, 0xe6, 0xe1, 0xee, 0xbc,
    0x05, 0x57, 0x04, 0x3d, 0xa8, 0x43, 0x0c, 0xbe, 0x15, 0xec, 0x51, 0xbe,
    0x20, 0x92, 0x05, 0xbc, 0xbd, 0x3f, 0xfd, 0x3d, 0xa3, 0x63, 0x2c, 0xbe,
    0xf5, 0x0b, 0x42, 0xbd, 0xc8, 0x74, 0x6f, 0xbe, 0xd6, 0x0c, 0x5c, 0xbd,
    0x5d, 0x99, 0x61, 0xbe, 0x87, 0x13, 0x18, 0x3d, 0xe9, 0x1b, 0x55, 0x3d,
    0xd6, 0x52, 0x1d, 0xbd, 0x2d, 0xb1, 0x12, 0x3c, 0x44, 0xf6, 0x25, 0x3e,
    0xdf, 0x3b, 0x00, 0x3e, 0x8a, 0xb9, 0xf5, 0xbd, 0x1d, 0x89, 0x4c, 0xbe,
    0xd1, 0x3b, 0x09, 0xbe, 0xec, 0xc6, 0x2e, 0x3d, 0xf3, 0xa4, 0x32, 0x3c,
    0x8c, 0xe2, 0x47, 0xbe, 0x5e, 0x2a, 0xd7, 0xbd, 0x49, 0xba, 0x9e, 0xbe,
    0x3c, 0x67, 0x53, 0xbc, 0xe7, 0xdd, 0xf2, 0x3d, 0x3d, 0x6f, 0x81, 0xbd,
    0xf0, 0xf1, 0x95, 0xbd, 0x68, 0xc8, 0x36, 0xbe, 0xd7, 0xe2, 0x35, 0xbb,
    0xbc, 0x9a, 0xcb, 0xbd, 0xc3, 0xaf, 0x39, 0xbe, 0x2d, 0x17, 0x1f, 0xbe,
    0x66, 0x8b, 0xe7, 0x3d, 0x47, 0x4f, 0xe0, 0xbd, 0x5d, 0x48, 0x4c, 0xbe,
    0xa6, 0xdb, 0x61, 0xbe, 0x8e, 0x2e, 0x4b, 0xbd, 0xec, 0x21, 0x94, 0x3d,
    0xb1, 0x80, 0x4b, 0xbe, 0xdf, 0xc9, 0x45, 0x3c, 0x2d, 0x5b, 0x9a, 0xbd,
    0x10, 0xec, 0x1b, 0xbe, 0xdf, 0x21, 0x0e, 0xbe, 0xbc, 0x3d, 0x3e, 0xbe,
    0x53, 0x5d, 0x49, 0xbe, 0x3e, 0x71, 0xdb, 0x3c, 0x1d, 0x90, 0xe4, 0xbd,
    0x97, 0x09, 0x71, 0xbd, 0xb1, 0xb3, 0x3f, 0xbc, 0x86, 0x67, 0x92, 0xbd,
    0x0f, 0x68, 0x07, 0x3e, 0x16, 0x32, 0x9b, 0xbd, 0x29, 0x2d, 0x0a, 0xbe,
    0x23, 0x3a, 0x0a, 0xbe, 0x05, 0xfc, 0x3e, 0xbb, 0x57, 0x89, 0x13, 0xbe,
    0x4b, 0x75, 0x62, 0xbe, 0x93, 0xb7, 0x87, 0xbe, 0x6d, 0x6d, 0xcc, 0x3d,
    0xba, 0x26, 0x05, 0xbe, 0x2f, 0x2a, 0xf1, 0x3c, 0x64, 0x39, 0x26, 0x3d,
    0x8c, 0x4c, 0xef, 0xbc, 0xf3, 0x0a, 0xee, 0xbd, 0x9a, 0x00, 0x95, 0x3c,
    0xbb, 0xa8, 0x0d, 0x3e, 0xab, 0x8c, 0x2c, 0xbe, 0x72, 0x4d, 0x80, 0xbe,
    0xb4, 0x6e, 0xba, 0xbd, 0x4c, 0xff, 0x20, 0xbe, 0xa5, 0x4c, 0x50, 0xbe,
    0xfb, 0xdc, 0x98, 0xbd, 0x58, 0xd9, 0x4f, 0x3d, 0x0e, 0xf8, 0xa5, 0xbb,
    0x47, 0xfd, 0xb1, 0xbd, 0xef, 0x72, 0xb1, 0x3d, 0xd4, 0x5e, 0x59, 0xbe,
    0xa4, 0xc3, 0x72, 0xbe, 0x31, 0xd7, 0x2f, 0xbe, 0x49, 0x68, 0x16, 0xbe,
    0x68, 0xfe, 0x12, 0xbf, 0x12, 0xfa, 0xee, 0x3d, 0x89, 0x50, 0xb8, 0xbe,
    0x17, 0x02, 0xd1, 0xbe, 0xad, 0x23, 0x94, 0x3e, 0x23, 0xfd, 0xa1, 0xbd,
    0x10, 0x22, 0x3a, 0x3a, 0x35, 0xc5, 0xaa, 0x3d, 0x0b, 0x57, 0x1f, 0xbf,
    0x8f, 0x4c, 0xe5, 0xbe, 0x22, 0x9c, 0x34, 0xbe, 0x9f, 0xcc, 0x28, 0xbe,
    0x14, 0x72, 0x11, 0x3d, 0xad, 0xd9, 0x5e, 0xbe, 0x1a, 0xb4, 0xee, 0xbd,
    0x48, 0xa1, 0x55, 0x3e, 0x92, 0x29, 0x10, 0xbe, 0x4c, 0x7f, 0x9c, 0x3e,
    0x37, 0x3f, 0xe5, 0xbe, 0x48, 0xf1, 0x5d, 0xbe, 0xb0, 0x3d, 0xce, 0xbd,
    0x34, 0x98, 0xe1, 0x3d, 0x50, 0x5e, 0xc9, 0x3d, 0xb7, 0xf2, 0x56, 0x3d,
    0x78, 0xae, 0x4a, 0x3e, 0xcb, 0x73, 0x0c, 0xbf, 0xd1, 0xcc, 0xc6, 0x3e,
    0xf0, 0x9e, 0x32, 0xbe, 0x97, 0xce, 0xc2, 0xbc, 0xd2, 0xe9, 0x43, 0xbd,
    0xee, 0x03, 0xbe, 0x3d, 0x2a, 0xad, 0x73, 0x3e, 0x90, 0x08, 0x21, 0xbe,
    0xbc, 0x1c, 0xb4, 0x3d, 0xae, 0x0c, 0xfd, 0xbe, 0xb1, 0x53, 0x9b, 0x3d,
    0x5b, 0x39, 0x0a, 0x3c, 0xde, 0x2c, 0x8f, 0x3d, 0x24, 0x78, 0x91, 0x3d,
    0xb2, 0x16, 0xa9, 0x3b, 0x40, 0xdd, 0x3d, 0x3e, 0x19, 0x42, 0x56, 0xbe,
    0x02, 0xa0, 0xc9, 0x3e, 0x65, 0xd9, 0xdb, 0x3c, 0x44, 0xd3, 0x87, 0x3d,
    0xac, 0x53, 0x1f, 0x3e, 0x4a, 0x16, 0x9c, 0x3d, 0x55, 0x35, 0x19, 0x3e,
    0x67, 0x46, 0x81, 0x3d, 0xf8, 0x9e, 0x0f, 0x3e, 0xae, 0x17, 0x7e, 0xbc,
    0x00, 0x00, 0xe5, 0x3c, 0x67, 0x8a, 0x64, 0xbe, 0xdb, 0xdc, 0x8b, 0x3d,
    0xe8, 0xfe, 0x91, 0x3d, 0xd2, 0x42, 0xa9, 0x3c, 0x27, 0xb1, 0xc3, 0x3d,
    0xad, 0xca, 0xc1, 0xbe, 0x3a, 0xcf, 0xc0, 0x3e, 0xda, 0x59, 0xa6, 0x3d,
    0x0e, 0x18, 0x3d, 0x3e, 0x63, 0x7c, 0x08, 0x3e, 0x99, 0xa1, 0x2d, 0x3d,
    0x9f, 0xb7, 0x4a, 0x3e, 0xfe, 0x13, 0x06, 0xbd, 0xdc, 0x90, 0x51, 0x3e,
    0x5c, 0x2b, 0xce, 0xbe, 0xeb, 0xd5, 0x22, 0xbe, 0x70, 0x00, 0x07, 0xbe,
    0x81, 0xf0, 0x23, 0x3e, 0x8a, 0xad, 0x8b, 0x3d, 0xc0, 0xbd, 0x8b, 0x3d,
    0xf2, 0x92, 0x46, 0x3e, 0x48, 0x0b, 0x89, 0xbe, 0x9d, 0x08, 0xad, 0x3e,
    0x90, 0x0e, 0x91, 0xbe, 0xef, 0x02, 0xc7, 0xbd, 0xe7, 0x17, 0x1c, 0xbe,
    0x6e, 0x1d, 0x13, 0x3e, 0xa4, 0xd2, 0x0f, 0x3e, 0x2d, 0x32, 0xa3, 0xbe,
    0x2e, 0x79, 0x85, 0x3e, 0x70, 0xf3, 0x73, 0xbe, 0x27, 0xd9, 0x09, 0x3d,
    0x03, 0xaf, 0xbe, 0xbe, 0x25, 0xde, 0x9f, 0xbc, 0xe8, 0x78, 0x3a, 0x3d,
    0x27, 0x36, 0xdc, 0x3c, 0x01, 0xf2, 0x1c, 0xbd, 0x92, 0x3a, 0xa6, 0xbd,
    0x2c, 0xe4, 0x27, 0x3d, 0xd8, 0x14, 0x4a, 0xbf, 0xef, 0x44, 0x0a, 0xbe,
    0xbe, 0xea, 0xd8, 0xbd, 0xf9, 0x25, 0x93, 0x3d, 0x9f, 0x5c, 0x23, 0x3e,
    0x2e, 0x8a, 0x65, 0xbd, 0x80, 0x9b, 0x57, 0x3e, 0x41, 0x82, 0x99, 0xbe,
    0xb8, 0x80, 0xb6, 0xbd, 0x82, 0x73, 0x88, 0xbe, 0xa1, 0xbb, 0xdc, 0x3c,
    0x62, 0x2a, 0x91, 0xbc, 0xe4, 0x3a, 0xc4, 0x3c, 0x7b, 0xce, 0x7c, 0xbd,
    0x5f, 0xb5, 0x84, 0xbd, 0xca, 0x69, 0x32, 0xbe, 0x20, 0xda, 0xc3, 0xbe,
    0xe3, 0xd5, 0xb4, 0xbd, 0x9d, 0x6b, 0xd9, 0xbd, 0x4e, 0xdb, 0xeb, 0xbc,
    0x1e, 0x66, 0xfa, 0x3d, 0x51, 0xc5, 0x26, 0xbe, 0x82, 0x4a, 0x3a, 0xbe,
    0x92, 0x26, 0x78, 0x3c, 0xd3, 0x7b, 0x15, 0x3e, 0x46, 0x14, 0x5e, 0xbd,
    0xe7, 0xf8, 0x74, 0xbe, 0xe2, 0xa5, 0x2f, 0xbe, 0x4e, 0xf5, 0x31, 0xbe,
    0x09, 0x7d, 0xae, 0xbd, 0xae, 0xe5, 0x36, 0xbd, 0xad, 0x78, 0xb4, 0xbd,
    0x56, 0x37, 0x2f, 0xbe, 0x0d, 0x55, 0x42, 0x3d, 0x89, 0x0a, 0xb1, 0xbd,
    0x24, 0xcd, 0xc4, 0xbd, 0x8b, 0x0c, 0x97, 0x3d, 0x7b, 0xbf, 0x4f, 0xbe,
    0x10, 0x00, 0x0c, 0x3e, 0xb2, 0xb9, 0xa5, 0x3d, 0xc7, 0x37, 0x22, 0x3e,
    0xff, 0x1f, 0xe7, 0xbc, 0xbf, 0x5c, 0x53, 0xbe, 0xd1, 0xf5, 0xbf, 0xbd,
    0x89, 0x11, 0x5e, 0xbd, 0x40, 0xeb, 0xec, 0x3a, 0x3a, 0x63, 0x73, 0x3d,
    0xb2, 0x17, 0x3d, 0x3d, 0xe5, 0xbb, 0x27, 0x3d, 0x77, 0x9d, 0xa8, 0x3d,
    0x84, 0x3e, 0x09, 0x3e, 0x7b, 0x8a, 0x2d, 0xbe, 0x53, 0x5b, 0x0d, 0x3c,
    0xd1, 0x5e, 0x79, 0xbe, 0xf7, 0xdf, 0x46, 0xbd, 0xa5, 0xa3, 0x21, 0x3e,
    0x52, 0x72, 0xca, 0xbc, 0xc6, 0x11, 0x1c, 0xbd, 0x23, 0x69, 0xf8, 0x3c,
    0xbf, 0x35, 0xca, 0xbd, 0x35, 0x65, 0x81, 0xbe, 0xe7, 0x2f, 0x22, 0x3e,
    0x1b, 0xaa, 0xa5, 0x3d, 0xc1, 0x15, 0x7b, 0xbe, 0xa7, 0xf2, 0x9f, 0x3c,
    0x61, 0x84, 0x2c, 0x3e, 0xee, 0x87, 0x6c, 0xbe, 0xec, 0xb5, 0xd8, 0x3d,
    0xcd, 0x4b, 0xff, 0xbd, 0x7d, 0x98, 0x70, 0xbe, 0x5b, 0xa8, 0xcd, 0xbd,
    0x11, 0x26, 0x5e, 0xbe, 0x12, 0x0c, 0x03, 0xbe, 0x04, 0x0a, 0x9c, 0x3d,
    0x71, 0x4b, 0xdf, 0x3d, 0x8d, 0x80, 0x07, 0xbe, 0xe6, 0x62, 0x26, 0xbe,
    0xd4, 0xb5, 0x0e, 0x3e, 0x6c, 0xb3, 0x6f, 0xbd, 0x1a, 0x25, 0x32, 0x3d,
    0x27, 0x3a, 0x3b, 0xbd, 0x32, 0x04, 0x28, 0x3d, 0x3f, 0xbe, 0x40, 0x3d,
    0x82, 0xe9, 0x14, 0xbe, 0xda, 0x3f, 0x93, 0x3d, 0x07, 0x2a, 0xdc, 0x3d,
    0x65, 0xb1, 0x45, 0xbd, 0x8e, 0x59, 0x60, 0xbe, 0x50, 0xb8, 0xf9, 0x3d,
    0x44, 0x74, 0x37, 0xbe, 0xac, 0x0f, 0x5f, 0xbe, 0xec, 0xaa, 0x79, 0xbe,
    0xb4, 0x49, 0xe7, 0x3d, 0x82, 0x39, 0x24, 0xbe, 0xf7, 0x77, 0xf2, 0xbc,
    0x0f, 0x37, 0x7e, 0xbd, 0x89, 0x38, 0x6b, 0x3d, 0xc7, 0xb3, 0x62, 0xbe,
    0x4b, 0x2b, 0xcd, 0x3d, 0x50, 0x16, 0xd7, 0xbd, 0xd1, 0x74, 0xb6, 0x3d,
    0x4d, 0x43, 0x59, 0x3d, 0x12, 0x0b, 0xaa, 0xbd, 0x70, 0xe1, 0x25, 0x3e,
    0xb7, 0x9d, 0x6d, 0xbc, 0x48, 0x3b, 0x0c, 0xbe, 0x5e, 0x83, 0xcc, 0xbc,
    0xf2, 0x2c, 0x67, 0xbd, 0xe9, 0xd5, 0xc2, 0xbd, 0xdd, 0x93, 0x10, 0xbd,
    0xa0, 0x85, 0x10, 0xbe, 0x4d, 0xe4, 0x8e, 0xbd, 0xef, 0xf4, 0x21, 0xbe,
    0x21, 0x77, 0x1e, 0x3e, 0x8e, 0xbe, 0x00, 0x3e, 0x01, 0x2d, 0x44, 0xbe,
    0x2f, 0x44, 0x70, 0x3d, 0xfc, 0x95, 0x42, 0xbd, 0x0f, 0xd6, 0xa5, 0x3d,
    0x38, 0x5a, 0xf0, 0xbd, 0x32, 0x62, 0x1b, 0xbe, 0x31, 0x49, 0xad, 0x3d,
    0x72, 0x89, 0x63, 0xbe, 0xa0, 0x2a, 0xb4, 0xbc, 0x02, 0xd2, 0xae, 0x3d,
    0x0a, 0xc4, 0x5e, 0xbe, 0x9d, 0x61, 0x7f, 0xbe, 0xf1, 0x5d, 0x84, 0x3d,
    0x66, 0x70, 0x1c, 0xbe, 0x1d, 0xbd, 0x29, 0x3e, 0x24, 0x46, 0xf1, 0x3d,
    0x3c, 0xbb, 0xf6, 0xbd, 0x1a, 0xfb, 0x0a, 0xbe, 0x4a, 0xfe, 0xff, 0xff,
    0x10, 0x00, 0x00, 0x00, 0x05, 0x00, 0x00, 0x00, 0x14, 0x00, 0x00, 0x00,
    0x2c, 0x00, 0x00, 0x00, 0x02, 0x00, 0x00, 0x00, 0x10, 0x00, 0x00, 0x00,
    0x70, 0x00, 0x00, 0x00, 0x17, 0x00, 0x00, 0x00, 0x73, 0x65, 0x71, 0x75,
    0x65, 0x6e, 0x74, 0x69, 0x61, 0x6c, 0x2f, 0x64, 0x65, 0x6e, 0x73, 0x65,
    0x2f, 0x4d, 0x61, 0x74, 0x4d, 0x75, 0x6c, 0x00, 0x38, 0xfe, 0xff, 0xff,
    0x2e, 0xff, 0xff, 0xff, 0x04, 0x00, 0x00, 0x00, 0x08, 0x00, 0x00, 0x00,
    0xff, 0xff, 0xff, 0xff, 0x70, 0x00, 0x00, 0x00, 0x00, 0x00, 0x0e, 0x00,
    0x18, 0x00, 0x08, 0x00, 0x07, 0x00, 0x0c, 0x00, 0x10, 0x00, 0x14, 0x00,
    0x0e, 0x00, 0x00, 0x00, 0x00, 0x00, 0x00, 0x02, 0x10, 0x00, 0x00, 0x00,
    0x04, 0x00, 0x00, 0x00, 0x10, 0x00, 0x00, 0x00, 0x2c, 0x00, 0x00, 0x00,
    0x01, 0x00, 0x00, 0x00, 0x02, 0x00, 0x00, 0x00, 0x18, 0x00, 0x00, 0x00,
    0x73, 0x65, 0x71, 0x75, 0x65, 0x6e, 0x74, 0x69, 0x61, 0x6c, 0x2f, 0x66,
    0x6c, 0x61, 0x74, 0x74, 0x65, 0x6e, 0x2f, 0x43, 0x6f, 0x6e, 0x73, 0x74,
    0x00, 0x00, 0x00, 0x00, 0xa0, 0xfe, 0xff, 0xff, 0x96, 0xff, 0xff, 0xff,
    0x04, 0x00, 0x00, 0x00, 0x0c, 0x00, 0x00, 0x00, 0x59, 0x76, 0x37, 0xc0,
    0x0c, 0x63, 0xea, 0x3f, 0xf5, 0x8a, 0x83, 0x3e, 0x0a, 0xff, 0xff, 0xff,
    0x10, 0x00, 0x00, 0x00, 0x03, 0x00, 0x00, 0x00, 0x10, 0x00, 0x00, 0x00,
    0x3c, 0x00, 0x00, 0x00, 0x01, 0x00, 0x00, 0x00, 0x03, 0x00, 0x00, 0x00,
    0x29, 0x00, 0x00, 0x00, 0x73, 0x65, 0x71, 0x75, 0x65, 0x6e, 0x74, 0x69,
    0x61, 0x6c, 0x2f, 0x64, 0x65, 0x6e, 0x73, 0x65, 0x5f, 0x31, 0x2f, 0x42,
    0x69, 0x61, 0x73, 0x41, 0x64, 0x64, 0x2f, 0x52, 0x65, 0x61, 0x64, 0x56,
    0x61, 0x72, 0x69, 0x61, 0x62, 0x6c, 0x65, 0x4f, 0x70, 0x00, 0x00, 0x00,
    0x60, 0xff, 0xff, 0xff, 0x00, 0x00, 0x06, 0x00, 0x08, 0x00, 0x04, 0x00,
    0x06, 0x00, 0x00, 0x00, 0x04, 0x00, 0x00, 0x00, 0x40, 0x00, 0x00, 0x00,
    0x46, 0x4d, 0x7a, 0x40, 0x24, 0x1f, 0x08, 0xbf, 0x6a, 0xc5, 0xf2, 0x3e,
    0x28, 0x5c, 0xd3, 0xbe, 0x18, 0x5c, 0x25, 0xbf, 0x14, 0x02, 0x13, 0x3f,
    0x21, 0x9c, 0xed, 0xbd, 0x2e, 0x46, 0x11, 0x40, 0x27, 0xdc, 0x59, 0xbe,
    0x7f, 0x11, 0xaf, 0x3e, 0x05, 0xa9, 0x5c, 0x40, 0x1d, 0x55, 0xbc, 0xbe,
    0x70, 0x15, 0xd0, 0xbe, 0x28, 0x74, 0x13, 0xbe, 0x66, 0xdc, 0x85, 0x40,
    0xb4, 0x9f, 0x33, 0xbe, 0xae, 0xff, 0xff, 0xff, 0x10, 0x00, 0x00, 0x00,
    0x02, 0x00, 0x00, 0x00, 0x10, 0x00, 0x00, 0x00, 0x3c, 0x00, 0x00, 0x00,
    0x01, 0x00, 0x00, 0x00, 0x10, 0x00, 0x00, 0x00, 0x27, 0x00, 0x00, 0x00,
    0x73, 0x65, 0x71, 0x75, 0x65, 0x6e, 0x74, 0x69, 0x61, 0x6c, 0x2f, 0x64,
    0x65, 0x6e, 0x73, 0x65, 0x2f, 0x42, 0x69, 0x61, 0x73, 0x41, 0x64, 0x64,
    0x2f, 0x52, 0x65, 0x61, 0x64, 0x56, 0x61, 0x72, 0x69, 0x61, 0x62, 0x6c,
    0x65, 0x4f, 0x70, 0x00, 0x04, 0x00, 0x06, 0x00, 0x04, 0x00, 0x00, 0x00,
    0x00, 0x00, 0x0e, 0x00, 0x14, 0x00, 0x04, 0x00, 0x00, 0x00, 0x08, 0x00,
    0x0c, 0x00, 0x10, 0x00, 0x0e, 0x00, 0x00, 0x00, 0x10, 0x00, 0x00, 0x00,
    0x01, 0x00, 0x00, 0x00, 0x1c, 0x00, 0x00, 0x00, 0x2c, 0x00, 0x00, 0x00,
    0x04, 0x00, 0x00, 0x00, 0x01, 0x00, 0x00, 0x00, 0x40, 0x00, 0x00, 0x00,
    0x03, 0x00, 0x00, 0x00, 0x01, 0x00, 0x00, 0x00, 0x0c, 0x00, 0x00, 0x00,
    0x63, 0x6f, 0x6e, 0x76, 0x32, 0x64, 0x5f, 0x69, 0x6e, 0x70, 0x75, 0x74,
    0x00, 0x00, 0x00, 0x00, 0xfc, 0xff, 0xff, 0xff, 0x04, 0x00, 0x04, 0x00,
    0x04, 0x00, 0x00, 0x00
};

unsigned int model_tflite_len = 12316;// Fill the int in `src/model.cc` here